{
  "version": "1.0",
  "truncation": null,
  "padding": null,
  "added_tokens": [
    {
      "id": 0,
      "content": "<UNK>",
      "single_word": false,
      "lstrip": false,
      "rstrip": false,
      "normalized": false,
      "special": true
    },
    {
      "id": 1,
      "content": "<BOS>",
      "single_word": false,
      "lstrip": false,
      "rstrip": false,
      "normalized": false,
      "special": true
    },
    {
      "id": 2,
      "content": "<EOS>",
      "single_word": false,
      "lstrip": false,
      "rstrip": false,
      "normalized": false,
      "special": true
    },
    {
      "id": 3,
      "content": "<PAD>",
      "single_word": false,
      "lstrip": false,
      "rstrip": false,
      "normalized": false,
      "special": true
    },
    {
      "id": 4,
      "content": "<|system|>",
      "single_word": false,
      "lstrip": false,
      "rstrip": false,
      "normalized": false,
      "special": true
    },
    {
      "id": 5,
      "content": "<|user|>",
      "single_word": false,
      "lstrip": false,
      "rstrip": false,
      "normalized": false,
      "special": true
    },
    {
      "id": 6,
      "content": "<|assistant|>",
      "single_word": false,
      "lstrip": false,
      "rstrip": false,
      "normalized": false,
      "special": true
    }
  ],
  "normalizer": null,
  "pre_tokenizer": {
    "type": "ByteLevel",
    "add_prefix_space": false,
    "trim_offsets": true,
    "use_regex": true
  },
  "post_processor": null,
  "decoder": {
    "type": "ByteLevel",
    "add_prefix_space": true,
    "trim_offsets": true,
    "use_regex": true
  },
  "model": {
    "type": "BPE",
    "dropout": null,
    "unk_token": "<UNK>",
    "continuing_subword_prefix": null,
    "end_of_word_suffix": null,
    "fuse_unk": false,
    "byte_fallback": false,
    "ignore_merges": false,
    "vocab": {
      "<UNK>": 0,
      "<BOS>": 1,
      "<EOS>": 2,
      "<PAD>": 3,
      "<|system|>": 4,
      "<|user|>": 5,
      "<|assistant|>": 6,
      "!": 7,
      "\"": 8,
      "#": 9,
      "$": 10,
      "%": 11,
      "&": 12,
      "'": 13,
      "(": 14,
      ")": 15,
      "*": 16,
      "+": 17,
      ",": 18,
      "-": 19,
      ".": 20,
      "/": 21,
      "0": 22,
      "1": 23,
      "2": 24,
      "3": 25,
      "4": 26,
      "5": 27,
      "6": 28,
      "7": 29,
      "8": 30,
      "9": 31,
      ":": 32,
      ";": 33,
      "<": 34,
      "=": 35,
      ">": 36,
      "?": 37,
      "@": 38,
      "A": 39,
      "B": 40,
      "C": 41,
      "D": 42,
      "E": 43,
      "F": 44,
      "G": 45,
      "H": 46,
      "I": 47,
      "J": 48,
      "K": 49,
      "L": 50,
      "M": 51,
      "N": 52,
      "O": 53,
      "P": 54,
      "Q": 55,
      "R": 56,
      "S": 57,
      "T": 58,
      "U": 59,
      "V": 60,
      "W": 61,
      "X": 62,
      "Y": 63,
      "Z": 64,
      "[": 65,
      "\\": 66,
      "]": 67,
      "^": 68,
      "_": 69,
      "`": 70,
      "a": 71,
      "b": 72,
      "c": 73,
      "d": 74,
      "e": 75,
      "f": 76,
      "g": 77,
      "h": 78,
      "i": 79,
      "j": 80,
      "k": 81,
      "l": 82,
      "m": 83,
      "n": 84,
      "o": 85,
      "p": 86,
      "q": 87,
      "r": 88,
      "s": 89,
      "t": 90,
      "u": 91,
      "v": 92,
      "w": 93,
      "x": 94,
      "y": 95,
      "z": 96,
      "{": 97,
      "|": 98,
      "}": 99,
      "~": 100,
      "¡": 101,
      "¢": 102,
      "£": 103,
      "¤": 104,
      "¥": 105,
      "¦": 106,
      "§": 107,
      "¨": 108,
      "©": 109,
      "ª": 110,
      "«": 111,
      "¬": 112,
      "®": 113,
      "¯": 114,
      "°": 115,
      "±": 116,
      "²": 117,
      "³": 118,
      "´": 119,
      "µ": 120,
      "¶": 121,
      "·": 122,
      "¸": 123,
      "¹": 124,
      "º": 125,
      "»": 126,
      "¼": 127,
      "½": 128,
      "¾": 129,
      "¿": 130,
      "À": 131,
      "Á": 132,
      "Â": 133,
      "Ã": 134,
      "Ä": 135,
      "Å": 136,
      "Æ": 137,
      "Ç": 138,
      "È": 139,
      "É": 140,
      "Ê": 141,
      "Ë": 142,
      "Ì": 143,
      "Í": 144,
      "Î": 145,
      "Ï": 146,
      "Ð": 147,
      "Ñ": 148,
      "Ò": 149,
      "Ó": 150,
      "Ô": 151,
      "Õ": 152,
      "Ö": 153,
      "×": 154,
      "Ø": 155,
      "Ù": 156,
      "Ú": 157,
      "Û": 158,
      "Ü": 159,
      "Ý": 160,
      "Þ": 161,
      "ß": 162,
      "à": 163,
      "á": 164,
      "â": 165,
      "ã": 166,
      "ä": 167,
      "å": 168,
      "æ": 169,
      "ç": 170,
      "è": 171,
      "é": 172,
      "ê": 173,
      "ë": 174,
      "ì": 175,
      "í": 176,
      "î": 177,
      "ï": 178,
      "ð": 179,
      "ñ": 180,
      "ò": 181,
      "ó": 182,
      "ô": 183,
      "õ": 184,
      "ö": 185,
      "÷": 186,
      "ø": 187,
      "ù": 188,
      "ú": 189,
      "û": 190,
      "ü": 191,
      "ý": 192,
      "þ": 193,
      "ÿ": 194,
      "Ā": 195,
      "ā": 196,
      "Ă": 197,
      "ă": 198,
      "Ą": 199,
      "ą": 200,
      "Ć": 201,
      "ć": 202,
      "Ĉ": 203,
      "ĉ": 204,
      "Ċ": 205,
      "ċ": 206,
      "Č": 207,
      "č": 208,
      "Ď": 209,
      "ď": 210,
      "Đ": 211,
      "đ": 212,
      "Ē": 213,
      "ē": 214,
      "Ĕ": 215,
      "ĕ": 216,
      "Ė": 217,
      "ė": 218,
      "Ę": 219,
      "ę": 220,
      "Ě": 221,
      "ě": 222,
      "Ĝ": 223,
      "ĝ": 224,
      "Ğ": 225,
      "ğ": 226,
      "Ġ": 227,
      "ġ": 228,
      "Ģ": 229,
      "ģ": 230,
      "Ĥ": 231,
      "ĥ": 232,
      "Ħ": 233,
      "ħ": 234,
      "Ĩ": 235,
      "ĩ": 236,
      "Ī": 237,
      "ī": 238,
      "Ĭ": 239,
      "ĭ": 240,
      "Į": 241,
      "į": 242,
      "İ": 243,
      "ı": 244,
      "Ĳ": 245,
      "ĳ": 246,
      "Ĵ": 247,
      "ĵ": 248,
      "Ķ": 249,
      "ķ": 250,
      "ĸ": 251,
      "Ĺ": 252,
      "ĺ": 253,
      "Ļ": 254,
      "ļ": 255,
      "Ľ": 256,
      "ľ": 257,
      "Ŀ": 258,
      "ŀ": 259,
      "Ł": 260,
      "ł": 261,
      "Ń": 262,
      "Ġt": 263,
      "Ġa": 264,
      "he": 265,
      "in": 266,
      "re": 267,
      "Ġthe": 268,
      "Ġo": 269,
      "er": 270,
      "on": 271,
      "at": 272,
      "Ġs": 273,
      "en": 274,
      "Ġc": 275,
      "Ġw": 276,
      "es": 277,
      "is": 278,
      "nd": 279,
      "or": 280,
      "it": 281,
      "Ġp": 282,
      "ed": 283,
      "al": 284,
      "Ġof": 285,
      "Ġb": 286,
      "Ġf": 287,
      "an": 288,
      "Ġin": 289,
      "ar": 290,
      "ing": 291,
      "Ġm": 292,
      "ou": 293,
      "ic": 294,
      "Ġand": 295,
      "Ġto": 296,
      "ion": 297,
      "Ġd": 298,
      "le": 299,
      "ro": 300,
      "as": 301,
      "Ġh": 302,
      "ent": 303,
      "Ġth": 304,
      "ct": 305,
      "il": 306,
      "Ġe": 307,
      "Ġre": 308,
      "om": 309,
      "Ġn": 310,
      "Ġl": 311,
      "st": 312,
      "ve": 313,
      "ly": 314,
      "Ġbe": 315,
      "ĠT": 316,
      "Ġis": 317,
      "ol": 318,
      "ation": 319,
      "se": 320,
      "Ġg": 321,
      "id": 322,
      "im": 323,
      "ce": 324,
      "ĠA": 325,
      "et": 326,
      "ut": 327,
      "ot": 328,
      "ur": 329,
      "ra": 330,
      "ch": 331,
      "ĠS": 332,
      "Ġfor": 333,
      "ow": 334,
      "ig": 335,
      "ĠC": 336,
      "âĢ": 337,
      "Ġthat": 338,
      "Ġon": 339,
      "Ġu": 340,
      "ver": 341,
      "ĠI": 342,
      "ir": 343,
      "Ġst": 344,
      "am": 345,
      "ul": 346,
      "ay": 347,
      "ad": 348,
      "el": 349,
      "Ġas": 350,
      "ith": 351,
      "her": 352,
      "Ġpro": 353,
      "Ġcon": 354,
      "ĠM": 355,
      "Ġy": 356,
      "Ġ1": 357,
      "Ġan": 358,
      "Ġwith": 359,
      "Ġwh": 360,
      "Ġ(": 361,
      "Ġor": 362,
      "Ġare": 363,
      "ter": 364,
      "if": 365,
      "Ġit": 366,
      "ĠP": 367,
      "ĠThe": 368,
      "Ġal": 369,
      "ment": 370,
      "od": 371,
      "ist": 372,
      "th": 373,
      "ers": 374,
      "ge": 375,
      "op": 376,
      "ate": 377,
      "Ġde": 378,
      "ĠB": 379,
      "ies": 380,
      "ill": 381,
      "ere": 382,
      "us": 383,
      "um": 384,
      "Ġex": 385,
      "ab": 386,
      "ĠH": 387,
      "res": 388,
      "Ġcom": 389,
      "Ġhe": 390,
      "ect": 391,
      "Ġby": 392,
      "ity": 393,
      "est": 394,
      "ess": 395,
      "rom": 396,
      "ore": 397,
      "Ġyou": 398,
      "os": 399,
      "ri": 400,
      "ld": 401,
      "Ġsu": 402,
      "em": 403,
      "Ġha": 404,
      "Ġat": 405,
      "Ġwas": 406,
      "ac": 407,
      "ĠW": 408,
      "ive": 409,
      "nt": 410,
      "Ġv": 411,
      "ĠD": 412,
      "qu": 413,
      "pp": 414,
      "ain": 415,
      "ĠR": 416,
      "ĠE": 417,
      "igh": 418,
      "ant": 419,
      "ud": 420,
      "Ġfrom": 421,
      "ĠF": 422,
      "ke": 423,
      "and": 424,
      "Ġ2": 425,
      "oc": 426,
      "iv": 427,
      "ĠN": 428,
      "Ġse": 429,
      "Ġne": 430,
      "ort": 431,
      "Ġch": 432,
      "Ġr": 433,
      "un": 434,
      "ĠG": 435,
      "Ġnot": 436,
      "ure": 437,
      "00": 438,
      "ical": 439,
      "art": 440,
      "ĠL": 441,
      "ial": 442,
      "Ġcan": 443,
      "og": 444,
      "Ġhave": 445,
      "Ġle": 446,
      "Ġsp": 447,
      "Ġsh": 448,
      "Ġen": 449,
      "ight": 450,
      "ich": 451,
      "all": 452,
      "pt": 453,
      "âĢĻ": 454,
      "The": 455,
      "Ġthis": 456,
      "rou": 457,
      "'s": 458,
      "Ġab": 459,
      "ould": 460,
      "ther": 461,
      "gh": 462,
      "ost": 463,
      "our": 464,
      "ions": 465,
      "Ġwor": 466,
      "ated": 467,
      "ard": 468,
      "ust": 469,
      "ome": 470,
      "ear": 471,
      "ĠJ": 472,
      "ine": 473,
      "ia": 474,
      "ell": 475,
      "ĠO": 476,
      "out": 477,
      "per": 478,
      "ĠâĢ": 479,
      "ĠU": 480,
      "ans": 481,
      "Ġwe": 482,
      "ast": 483,
      "Ġus": 484,
      "ff": 485,
      "Ġtheir": 486,
      "Ġint": 487,
      "act": 488,
      "ec": 489,
      "Ġim": 490,
      "Ġwhich": 491,
      "pl": 492,
      "ĠIn": 493,
      "Ġpl": 494,
      "du": 495,
      "Ġ\"": 496,
      "ide": 497,
      "ag": 498,
      "ew": 499,
      "Ġk": 500,
      "ous": 501,
      "age": 502,
      "are": 503,
      "Ġcont": 504,
      "iz": 505,
      "ak": 506,
      "Ġall": 507,
      "Ġdis": 508,
      "ib": 509,
      "Ġwhe": 510,
      "end": 511,
      "Ġ19": 512,
      "Ġad": 513,
      "cc": 514,
      "Ġthey": 515,
      "ary": 516,
      "ap": 517,
      "ong": 518,
      "ru": 519,
      "orm": 520,
      "ations": 521,
      "Ġwere": 522,
      "vel": 523,
      "ater": 524,
      "Ġmore": 525,
      "Ġhas": 526,
      "Ġinc": 527,
      "ult": 528,
      "Ġcomp": 529,
      "ood": 530,
      "ip": 531,
      "Ġres": 532,
      "Ġwill": 533,
      "ire": 534,
      "Ġbut": 535,
      "Ġother": 536,
      "Ġdo": 537,
      "Ġper": 538,
      "ence": 539,
      "ual": 540,
      "Ġcl": 541,
      "so": 542,
      "ry": 543,
      "ild": 544,
      "ĠTh": 545,
      "ep": 546,
      "Ġone": 547,
      "Ġman": 548,
      "ks": 549,
      "able": 550,
      "ose": 551,
      "Ġar": 552,
      "ance": 553,
      "ign": 554,
      "ind": 555,
      "Ġj": 556,
      "Ġme": 557,
      "âĢĿ": 558,
      "ace": 559,
      "Ġhis": 560,
      "ress": 561,
      "ass": 562,
      "ice": 563,
      "ber": 564,
      "ents": 565,
      "ord": 566,
      "ach": 567,
      "ction": 568,
      "Ġun": 569,
      "ame": 570,
      "reat": 571,
      "ase": 572,
      ").": 573,
      "Ġpart": 574,
      "av": 575,
      "ĠSt": 576,
      "ory": 577,
      "ount": 578,
      "Ġapp": 579,
      "Ġalso": 580,
      "Ġte": 581,
      "Ġwho": 582,
      "Ġyour": 583,
      "au": 584,
      "Ġev": 585,
      "ĠK": 586,
      "Ġcomm": 587,
      "ish": 588,
      "olog": 589,
      "ub": 590,
      "ake": 591,
      "Ġimp": 592,
      "ition": 593,
      "Ġout": 594,
      "Ġpre": 595,
      "Ġso": 596,
      "ack": 597,
      "ci": 598,
      "ime": 599,
      "Ġabout": 600,
      "ens": 601,
      "Ġinf": 602,
      "one": 603,
      "ok": 604,
      "ite": 605,
      "very": 606,
      "ound": 607,
      "ors": 608,
      "Ġstud": 609,
      "ian": 610,
      "ree": 611,
      "mer": 612,
      "ces": 613,
      "Ġyear": 614,
      "Ġsy": 615,
      "ĠâĢľ": 616,
      "ĠCh": 617,
      "Ġmay": 618,
      "Ġthan": 619,
      "Ġup": 620,
      "ĠV": 621,
      "ue": 622,
      "Ġpe": 623,
      "Ġbeen": 624,
      "ile": 625,
      "ates": 626,
      "Ġits": 627,
      "ang": 628,
      "ric": 629,
      "Ġrec": 630,
      "Ġthem": 631,
      "Ġhad": 632,
      "own": 633,
      "Ġsome": 634,
      "Ġag": 635,
      "ie": 636,
      "low": 637,
      "Ġbec": 638,
      "vers": 639,
      "Ġgo": 640,
      "ail": 641,
      "ĠIt": 642,
      "Ġthere": 643,
      "Ġqu": 644,
      "ays": 645,
      "nder": 646,
      "ons": 647,
      "ike": 648,
      "ph": 649,
      "ough": 650,
      "Ġinto": 651,
      "erv": 652,
      "tern": 653,
      "rit": 654,
      "ond": 655,
      "Ġtra": 656,
      "Ġ3": 657,
      "ople": 658,
      "Ġtw": 659,
      "Ġkn": 660,
      "iff": 661,
      "Ġ200": 662,
      "rough": 663,
      "te": 664,
      "ren": 665,
      "lic": 666,
      "ms": 667,
      "ings": 668,
      "Ġwhen": 669,
      "ational": 670,
      "lud": 671,
      "irst": 672,
      "Ġra": 673,
      "Ġsa": 674,
      "Ġnew": 675,
      "Ġwould": 676,
      "Ġrep": 677,
      "Ġthese": 678,
      "ject": 679,
      "lect": 680,
      "ove": 681,
      "Ġover": 682,
      "Ġgen": 683,
      "Ġind": 684,
      "ob": 685,
      "int": 686,
      "ally": 687,
      "Ġtime": 688,
      "Ġwork": 689,
      "Ġcons": 690,
      "Ġcol": 691,
      "Ġdes": 692,
      "Ġ-": 693,
      "Ġact": 694,
      "Ġbl": 695,
      "ific": 696,
      "hed": 697,
      "Ġunder": 698,
      "ll": 699,
      "Ġmost": 700,
      "Ġro": 701,
      "wn": 702,
      "ments": 703,
      "ys": 704,
      "stem": 705,
      "ĠThis": 706,
      "ities": 707,
      "red": 708,
      "velop": 709,
      "Ġuse": 710,
      "we": 711,
      "Ġbet": 712,
      "Ġpeople": 713,
      "ĠUn": 714,
      "Ġrel": 715,
      "ause": 716,
      "),": 717,
      "Ġsuch": 718,
      "ook": 719,
      "Ġacc": 720,
      "Ġ20": 721,
      "ĠY": 722,
      "iss": 723,
      "Ġhow": 724,
      "Ġdiff": 725,
      "Ġno": 726,
      "Ġprov": 727,
      "ative": 728,
      "Ġif": 729,
      "Ġany": 730,
      "Ġfirst": 731,
      "Ġinclud": 732,
      "Ġtr": 733,
      "Ġoff": 734,
      "ced": 735,
      "les": 736,
      "ning": 737,
      "ov": 738,
      "Ġonly": 739,
      "Ġtwo": 740,
      "ple": 741,
      "ious": 742,
      "Ġspec": 743,
      "Ġeff": 744,
      "Ġph": 745,
      "Ġchild": 746,
      "ular": 747,
      "erm": 748,
      "Ġlike": 749,
      "Ġam": 750,
      "Ġour": 751,
      "rib": 752,
      "ied": 753,
      "Ġused": 754,
      "Ġpo": 755,
      "fter": 756,
      "alth": 757,
      "ts": 758,
      "Ġreg": 759,
      "Ġdevelop": 760,
      "oss": 761,
      "Ġexp": 762,
      "Ġprodu": 763,
      "ĠHe": 764,
      "Ġthrough": 765,
      "Ġmany": 766,
      "Ġsur": 767,
      "uc": 768,
      "Ġob": 769,
      "Ġneed": 770,
      "cess": 771,
      "Ġatt": 772,
      "uring": 773,
      "ool": 774,
      "Ġem": 775,
      "ating": 776,
      "Ġsystem": 777,
      "Ġac": 778,
      "ics": 779,
      "arch": 780,
      "Ġwhat": 781,
      "aw": 782,
      "ath": 783,
      "Ġsc": 784,
      "iet": 785,
      "ower": 786,
      "als": 787,
      "yp": 788,
      "hen": 789,
      "round": 790,
      "Ġyears": 791,
      "ise": 792,
      "rop": 793,
      "ne": 794,
      "Ġ4": 795,
      "ert": 796,
      "ark": 797,
      "ink": 798,
      "old": 799,
      "oth": 800,
      "ution": 801,
      "Ġdec": 802,
      "Ġass": 803,
      "sel": 804,
      "ited": 805,
      "ten": 806,
      "ram": 807,
      "Ġsub": 808,
      "ife": 809,
      "ased": 810,
      "ade": 811,
      "meric": 812,
      "ible": 813,
      "Ġadd": 814,
      "ility": 815,
      "Ġpr": 816,
      "Ġwater": 817,
      "ful": 818,
      "ology": 819,
      "ists": 820,
      "cy": 821,
      "row": 822,
      "..": 823,
      "Ġ18": 824,
      "ange": 825,
      "gan": 826,
      "Ġinv": 827,
      "Ġsupp": 828,
      "In": 829,
      "Ġpol": 830,
      "ween": 831,
      "Ġinter": 832,
      "Ġfe": 833,
      "fore": 834,
      "lp": 835,
      "Ġshould": 836,
      "ures": 837,
      "ered": 838,
      "Ġcould": 839,
      "Ġco": 840,
      "Ġfl": 841,
      "ident": 842,
      "ble": 843,
      "Ġ5": 844,
      "Ġpres": 845,
      "Ġrem": 846,
      "ĠAs": 847,
      "ick": 848,
      "ormation": 849,
      "ng": 850,
      "eth": 851,
      "uch": 852,
      "Ġhelp": 853,
      "Ġbetween": 854,
      "Ġrese": 855,
      "ft": 856,
      "Ġwhere": 857,
      "vern": 858,
      "ily": 859,
      "hes": 860,
      "ivers": 861,
      "chn": 862,
      "Ġdiffere": 863,
      "ĠAmeric": 864,
      "ract": 865,
      "Ġcount": 866,
      "its": 867,
      "Ġear": 868,
      "Ġcent": 869,
      "Ġsaid": 870,
      "Ġnum": 871,
      "ism": 872,
      "Ġwell": 873,
      "ins": 874,
      "Ġtrans": 875,
      "ex": 876,
      "ever": 877,
      "Ġsm": 878,
      "Ġform": 879,
      "ont": 880,
      "ict": 881,
      "Ġfound": 882,
      "gy": 883,
      ".\"": 884,
      "land": 885,
      "ural": 886,
      "Ġlar": 887,
      "Ġ201": 888,
      "Ġmed": 889,
      "ants": 890,
      "urn": 891,
      "Ġmod": 892,
      "Ġpers": 893,
      "Ġref": 894,
      "chool": 895,
      "Ġhum": 896,
      "Ġcall": 897,
      "Ġexam": 898,
      "Ġhigh": 899,
      "itt": 900,
      "Ġpub": 901,
      "ved": 902,
      "omm": 903,
      "Ġafter": 904,
      "ually": 905,
      "ature": 906,
      "Ġlong": 907,
      "ef": 908,
      "oy": 909,
      "Ġdet": 910,
      "cept": 911,
      "Ġjust": 912,
      "Ġthose": 913,
      "cer": 914,
      "Ġinst": 915,
      "ines": 916,
      "Ġed": 917,
      "ĠPro": 918,
      "other": 919,
      "Ġmake": 920,
      "Ġher": 921,
      "Ġdef": 922,
      "Ġbu": 923,
      "cent": 924,
      "eral": 925,
      "Ġworld": 926,
      "Ġeven": 927,
      "Ġright": 928,
      "Ġloc": 929,
      "vent": 930,
      "ases": 931,
      "iew": 932,
      "Ġext": 933,
      "Ġthen": 934,
      "roup": 935,
      "Ġeffect": 936,
      "ically": 937,
      "Ġsign": 938,
      "Ġdist": 939,
      "ork": 940,
      "Ġknow": 941,
      "Ġinformation": 942,
      "Th": 943,
      "Ġdisc": 944,
      "Ġimport": 945,
      "Ġget": 946,
      "19": 947,
      "Ġprog": 948,
      "ds": 949,
      "Ġbecause": 950,
      "ĠAl": 951,
      "Ġvery": 952,
      "Ġhealth": 953,
      "Ġway": 954,
      "led": 955,
      "ollow": 956,
      "Ġsee": 957,
      "ward": 958,
      "Ġsim": 959,
      "Ġcar": 960,
      "Ġbeing": 961,
      "Ġpat": 962,
      "||": 963,
      "Ġincre": 964,
      "ives": 965,
      "ck": 966,
      "Ġsame": 967,
      "Ġsci": 968,
      "Ġresp": 969,
      "Ġcommun": 970,
      "imes": 971,
      "Ġsec": 972,
      "Ġca": 973,
      "io": 974,
      "Ġfact": 975,
      "Ġpartic": 976,
      "Ġcell": 977,
      "Ġexper": 978,
      "ues": 979,
      "iron": 980,
      "ĠWh": 981,
      "aking": 982,
      "get": 983,
      "ran": 984,
      "Ġmon": 985,
      "ruct": 986,
      "Ġtechn": 987,
      "Ġmade": 988,
      "Ġduring": 989,
      "ather": 990,
      "Ġmuch": 991,
      "the": 992,
      "Ġ6": 993,
      "Ġfam": 994,
      "arm": 995,
      "con": 996,
      "iversity": 997,
      "ness": 998,
      "xt": 999,
      "Ġgra": 1000,
      "ized": 1001,
      "Ġchildren": 1002,
      "ĠNew": 1003,
      "ĠFor": 1004,
      "Ġaut": 1005,
      "Ġstate": 1006,
      "Ġdifferent": 1007,
      "Ġevery": 1008,
      "Ġagain": 1009,
      "ata": 1010,
      "gg": 1011,
      "Ġown": 1012,
      "Ġeach": 1013,
      "Ġgovern": 1014,
      "Ġke": 1015,
      "ros": 1016,
      "Ġart": 1017,
      "Ġset": 1018,
      "Ġmem": 1019,
      "orn": 1020,
      "Ġrequ": 1021,
      "Ġent": 1022,
      "any": 1023,
      "und": 1024,
      "ages": 1025,
      "ection": 1026,
      "Ġvar": 1027,
      "ince": 1028,
      "Ġmy": 1029,
      "Ġresult": 1030,
      "ĠAn": 1031,
      "ĠAr": 1032,
      "Ġend": 1033,
      "Ġtyp": 1034,
      "Ġdep": 1035,
      "ars": 1036,
      "Ġpop": 1037,
      "hem": 1038,
      "000": 1039,
      "ĠâĢĵ": 1040,
      "Ġfollow": 1041,
      "ven": 1042,
      "Ġshe": 1043,
      "Ġback": 1044,
      "Ġgroup": 1045,
      "Ġsoc": 1046,
      "ty": 1047,
      "irect": 1048,
      "Ġstudy": 1049,
      "form": 1050,
      "ined": 1051,
      "Ġcre": 1052,
      "omen": 1053,
      "eg": 1054,
      "Ġlife": 1055,
      "ĠThey": 1056,
      "ĠWe": 1057,
      "Ġprocess": 1058,
      "Ġhim": 1059,
      "ished": 1060,
      "Ġlear": 1061,
      "ury": 1062,
      "'t": 1063,
      "Ġcur": 1064,
      "Ġshow": 1065,
      "oh": 1066,
      "viron": 1067,
      "Ġlevel": 1068,
      "Ġtest": 1069,
      "Ġnow": 1070,
      "ah": 1071,
      "ize": 1072,
      "ody": 1073,
      "ute": 1074,
      "Ġdoes": 1075,
      ",\"": 1076,
      "Ġmin": 1077,
      "Ġ199": 1078,
      "ale": 1079,
      ".âĢĿ": 1080,
      "hip": 1081,
      "Ġcomple": 1082,
      "Ġhist": 1083,
      "Ġpower": 1084,
      "Ġins": 1085,
      "rol": 1086,
      "Ġlead": 1087,
      "Ġboth": 1088,
      "ĠInd": 1089,
      "ax": 1090,
      "ting": 1091,
      "ergy": 1092,
      ".,": 1093,
      "Ġtreat": 1094,
      "ron": 1095,
      "Ġocc": 1096,
      "Ġfind": 1097,
      "inal": 1098,
      "Ġread": 1099,
      "Ġbefore": 1100,
      "ient": 1101,
      "Ġschool": 1102,
      "ix": 1103,
      "ral": 1104,
      "iel": 1105,
      "Ġproble": 1106,
      "Ġsmall": 1107,
      "Ġsk": 1108,
      "Ġimportant": 1109,
      "Ġ7": 1110,
      "Ġbo": 1111,
      "Ġav": 1112,
      "ee": 1113,
      "read": 1114,
      "nce": 1115,
      "Ġperson": 1116,
      "ĠSp": 1117,
      "Ġprovid": 1118,
      "ices": 1119,
      "ĠIf": 1120,
      "Ġthree": 1121,
      "Ġstr": 1122,
      "Ġreport": 1123,
      "Ġdid": 1124,
      "Ġgood": 1125,
      "Ġdise": 1126,
      "Ġstudents": 1127,
      "ially": 1128,
      "Ġser": 1129,
      "Ġ10": 1130,
      "vironment": 1131,
      "imate": 1132,
      "Ġexpl": 1133,
      "Ġnumber": 1134,
      "hers": 1135,
      "cl": 1136,
      "ving": 1137,
      "ĠIs": 1138,
      "Ġelect": 1139,
      "Ġprot": 1140,
      "Ġdown": 1141,
      "ves": 1142,
      "Ġresearch": 1143,
      "Ġoften": 1144,
      "der": 1145,
      "Ġorgan": 1146,
      "Ġposs": 1147,
      "Ġland": 1148,
      "up": 1149,
      "Ġgl": 1150,
      "stit": 1151,
      "ected": 1152,
      "Ġless": 1153,
      "ters": 1154,
      "ination": 1155,
      "Ġhuman": 1156,
      "Ġbel": 1157,
      "ĠBut": 1158,
      "ital": 1159,
      "Ġest": 1160,
      "air": 1161,
      "Ġusing": 1162,
      "Ġcontin": 1163,
      "Ġlarge": 1164,
      "âĢĶ": 1165,
      "ulation": 1166,
      "ared": 1167,
      "ivid": 1168,
      "aj": 1169,
      "self": 1170,
      "Ġvis": 1171,
      "ave": 1172,
      "Ġcour": 1173,
      "Ġcalled": 1174,
      "rent": 1175,
      "ier": 1176,
      "ĠHow": 1177,
      "Ġexample": 1178,
      "lear": 1179,
      "Ġwhile": 1180,
      "orth": 1181,
      "Ġpublic": 1182,
      "Ġmust": 1183,
      "bers": 1184,
      "Ġserv": 1185,
      "Ġdata": 1186,
      "Ġday": 1187,
      "Ġgovernment": 1188,
      "ains": 1189,
      "Ġret": 1190,
      "Ġ8": 1191,
      "ring": 1192,
      "ior": 1193,
      "ull": 1194,
      "ock": 1195,
      "Ġmain": 1196,
      "stand": 1197,
      "gen": 1198,
      "oun": 1199,
      "Ġmet": 1200,
      "Ġchar": 1201,
      "Ġgreat": 1202,
      "Ġplan": 1203,
      "Ġsol": 1204,
      "Ġfood": 1205,
      "Ġhand": 1206,
      "Ġlaw": 1207,
      "Ġfun": 1208,
      "Ġris": 1209,
      "Ġdesign": 1210,
      "uss": 1211,
      "outh": 1212,
      "Ġactiv": 1213,
      "Ġcommon": 1214,
      "day": 1215,
      "Ġtake": 1216,
      "Ġpoint": 1217,
      "ĠUniversity": 1218,
      "osed": 1219,
      "Ġconf": 1220,
      "ton": 1221,
      "dition": 1222,
      "ĠRe": 1223,
      "ians": 1224,
      "ĠAmerican": 1225,
      "ash": 1226,
      "Ġ9": 1227,
      "Ġgrow": 1228,
      "Ġincluding": 1229,
      "Ġgener": 1230,
      "conom": 1231,
      "Ġsupport": 1232,
      "Ġclass": 1233,
      "iqu": 1234,
      "ality": 1235,
      "Ġop": 1236,
      "Ġthough": 1237,
      "Ġaround": 1238,
      "Ġval": 1239,
      "Ġconsid": 1240,
      "ĠAnd": 1241,
      "com": 1242,
      "ĠDe": 1243,
      "akes": 1244,
      "reen": 1245,
      "Ġwrit": 1246,
      "iety": 1247,
      "ouse": 1248,
      "Ġlook": 1249,
      "iver": 1250,
      "itions": 1251,
      "Ġredu": 1252,
      "Ġaff": 1253,
      "This": 1254,
      "way": 1255,
      "Ġdirect": 1256,
      "amp": 1257,
      "Ġadv": 1258,
      "ger": 1259,
      "Ġbody": 1260,
      "Ġallow": 1261,
      "ross": 1262,
      "ĠCon": 1263,
      "oci": 1264,
      "ission": 1265,
      "Ġsom": 1266,
      "erest": 1267,
      "Ġcor": 1268,
      "man": 1269,
      "to": 1270,
      "acter": 1271,
      "Ġstand": 1272,
      "Ġequ": 1273,
      "Wh": 1274,
      "Ġknown": 1275,
      "10": 1276,
      "Ġstill": 1277,
      "illion": 1278,
      "ted": 1279,
      "ium": 1280,
      "de": 1281,
      "ris": 1282,
      "Ġmat": 1283,
      "ources": 1284,
      "ense": 1285,
      "ional": 1286,
      "Ġplace": 1287,
      "20": 1288,
      "Ġpercent": 1289,
      "ired": 1290,
      "Ġagainst": 1291,
      "esp": 1292,
      "Ġwithout": 1293,
      "Ġdesc": 1294,
      "ries": 1295,
      "aterial": 1296,
      "Ġenergy": 1297,
      "Ġeduc": 1298,
      "Ġstart": 1299,
      "raph": 1300,
      "ĠSe": 1301,
      "Ġcap": 1302,
      "iod": 1303,
      "Ġfew": 1304,
      "Ġsl": 1305,
      "Ġappro": 1306,
      "Ġmight": 1307,
      "Ġphys": 1308,
      "Ġanother": 1309,
      "Ġquest": 1310,
      "Ġtem": 1311,
      "iving": 1312,
      "ĠComm": 1313,
      "Ġenvironment": 1314,
      "Ġdem": 1315,
      "Ġgu": 1316,
      "oid": 1317,
      "ording": 1318,
      "Ġbeh": 1319,
      "Ġleg": 1320,
      "ner": 1321,
      "Ġiss": 1322,
      "ization": 1323,
      "rist": 1324,
      "Ġchang": 1325,
      "Ġcare": 1326,
      "Ġthink": 1327,
      "ration": 1328,
      "ining": 1329,
      "ug": 1330,
      "els": 1331,
      "ertain": 1332,
      ",âĢĿ": 1333,
      "ajor": 1334,
      "ĠCol": 1335,
      "ĠUnited": 1336,
      "Ġ'": 1337,
      "lished": 1338,
      "Ġair": 1339,
      "Ġdisease": 1340,
      "Ġcontrol": 1341,
      "Ġsays": 1342,
      "Ġdevelopment": 1343,
      "Ġscient": 1344,
      "use": 1345,
      "Ġide": 1346,
      "Ġarea": 1347,
      "Ġchange": 1348,
      "ret": 1349,
      "ified": 1350,
      "iven": 1351,
      "Ġwomen": 1352,
      "ĠPh": 1353,
      "atural": 1354,
      "itive": 1355,
      "Ġpresent": 1356,
      "Ġmar": 1357,
      "Ġeconom": 1358,
      "gin": 1359,
      "Ġpract": 1360,
      "ained": 1361,
      "Ġinterest": 1362,
      "Ġmil": 1363,
      "att": 1364,
      "ccess": 1365,
      "ason": 1366,
      "âĢĵ": 1367,
      "lish": 1368,
      "arent": 1369,
      "ern": 1370,
      "Ġwithin": 1371,
      "ĠThere": 1372,
      "az": 1373,
      "ĠAt": 1374,
      "ote": 1375,
      "here": 1376,
      "ological": 1377,
      "less": 1378,
      "Ġwar": 1379,
      "ien": 1380,
      "ption": 1381,
      "Ġcaus": 1382,
      "hor": 1383,
      "Ġproduct": 1384,
      "ĠThese": 1385,
      "Ġant": 1386,
      "rodu": 1387,
      "Ġbelie": 1388,
      "ived": 1389,
      "Ġmaterial": 1390,
      "Ġnear": 1391,
      "me": 1392,
      "Ġ&": 1393,
      "Ġpass": 1394,
      "Ġ15": 1395,
      "âĢľ": 1396,
      "Ġbro": 1397,
      "ats": 1398,
      "Ġbuild": 1399,
      "Ġbas": 1400,
      "Ġproject": 1401,
      "ividual": 1402,
      "ering": 1403,
      "Ġunderstand": 1404,
      "Ġcells": 1405,
      "ield": 1406,
      "bs": 1407,
      "med": 1408,
      "arc": 1409,
      "line": 1410,
      "Ġrest": 1411,
      "Ġspecies": 1412,
      "Ġoper": 1413,
      "Ġearly": 1414,
      "ina": 1415,
      "ator": 1416,
      "ential": 1417,
      "sp": 1418,
      "Ġblood": 1419,
      "Ġsever": 1420,
      "erc": 1421,
      "Ġpar": 1422,
      "ĠStates": 1423,
      "Ġprogram": 1424,
      "ets": 1425,
      "Ġinclude": 1426,
      "Ġident": 1427,
      "Ġve": 1428,
      "ĠAd": 1429,
      "Ġeas": 1430,
      "ĠCan": 1431,
      "Ġsay": 1432,
      "ently": 1433,
      "ned": 1434,
      "ames": 1435,
      "Ġsocial": 1436,
      "of": 1437,
      "Ġbre": 1438,
      "oms": 1439,
      "ĠEng": 1440,
      "Ġoccur": 1441,
      "Ġlast": 1442,
      "ĠNational": 1443,
      "Ġ[": 1444,
      "Ġobject": 1445,
      "Ġmajor": 1446,
      "Ġeng": 1447,
      "ograph": 1448,
      "ĠRes": 1449,
      "Ġpolit": 1450,
      "Ġparticular": 1451,
      "eng": 1452,
      "Ġpur": 1453,
      "ank": 1454,
      "osp": 1455,
      "ethod": 1456,
      "rap": 1457,
      "Ġfamily": 1458,
      "ĠGod": 1459,
      "Ġlight": 1460,
      "Ġsecond": 1461,
      "Ġlow": 1462,
      "Ġtri": 1463,
      "rain": 1464,
      "Ġprof": 1465,
      "Ġcurrent": 1466,
      "ww": 1467,
      "atic": 1468,
      "Ġanim": 1469,
      "sy": 1470,
      "Ġlim": 1471,
      "Ġopp": 1472,
      "ability": 1473,
      "Ġorig": 1474,
      "Ġold": 1475,
      "angu": 1476,
      "Ġmove": 1477,
      "Ġmeas": 1478,
      "Ġinvol": 1479,
      "ource": 1480,
      "Ġele": 1481,
      "Ġindividual": 1482,
      "Ġunt": 1483,
      "Ġwant": 1484,
      "ittle": 1485,
      "Ġdev": 1486,
      "ĠCl": 1487,
      "Ġpos": 1488,
      "inc": 1489,
      "Ġprop": 1490,
      "It": 1491,
      "ĠSh": 1492,
      "ards": 1493,
      "Ġprovide": 1494,
      "Ġpress": 1495,
      "though": 1496,
      "Ġlocal": 1497,
      "...": 1498,
      "Ġavail": 1499,
      "Ġseveral": 1500,
      "Ġet": 1501,
      "Ġcountry": 1502,
      "ision": 1503,
      "Ġhistory": 1504,
      "gn": 1505,
      "ĠZ": 1506,
      "12": 1507,
      "ention": 1508,
      "Ġbir": 1509,
      "Ġconst": 1510,
      "Ġhome": 1511,
      "Ġlater": 1512,
      "ead": 1513,
      "Ġname": 1514,
      "ĠEn": 1515,
      "ik": 1516,
      "ĠYou": 1517,
      "Ġorder": 1518,
      "resent": 1519,
      "Ġbecome": 1520,
      "cing": 1521,
      "Ġter": 1522,
      "ĠCent": 1523,
      "Ġdon": 1524,
      "Ġtreatment": 1525,
      "Ġfore": 1526,
      "Ġcult": 1527,
      "view": 1528,
      "ify": 1529,
      "alk": 1530,
      "Ġfour": 1531,
      "Ġmen": 1532,
      "ids": 1533,
      "Ġsit": 1534,
      "Ġben": 1535,
      "idence": 1536,
      "Ġproper": 1537,
      "Ġpot": 1538,
      "omp": 1539,
      "eed": 1540,
      "ternational": 1541,
      "Ġprom": 1542,
      "ended": 1543,
      "Ġaddition": 1544,
      "Ġsince": 1545,
      "Ġ17": 1546,
      "Ġhere": 1547,
      "ories": 1548,
      "abor": 1549,
      "Ġopen": 1550,
      "ients": 1551,
      "Ġpost": 1552,
      "18": 1553,
      "Ġmark": 1554,
      "Ġtop": 1555,
      "olution": 1556,
      "Ġrisk": 1557,
      "Ġperform": 1558,
      "ged": 1559,
      "ĠWhen": 1560,
      "Ġbi": 1561,
      "Ġtre": 1562,
      "Ġfre": 1563,
      "ĠHowever": 1564,
      "ĠEx": 1565,
      "Ġtoo": 1566,
      "ĠChrist": 1567,
      "Ġfar": 1568,
      "Ġmus": 1569,
      "ware": 1570,
      "Ġpri": 1571,
      "Ġview": 1572,
      "Ġel": 1573,
      "Ġareas": 1574,
      "ohn": 1575,
      "Ġmeans": 1576,
      "Ġlo": 1577,
      "Ġamong": 1578,
      "face": 1579,
      "Ġpossible": 1580,
      "urop": 1581,
      "Ġtimes": 1582,
      "Ġfin": 1583,
      "Ġdeterm": 1584,
      "ples": 1585,
      "par": 1586,
      "Ġsuccess": 1587,
      "Ġmethod": 1588,
      "une": 1589,
      "Ġsym": 1590,
      "let": 1591,
      "ably": 1592,
      "Ġcertain": 1593,
      "Ġperiod": 1594,
      "iter": 1595,
      "Ġimpro": 1596,
      "Ġavailable": 1597,
      "ĠQ": 1598,
      "Ġfollowing": 1599,
      "ĠMed": 1600,
      "Ġrun": 1601,
      "ek": 1602,
      "Ġbest": 1603,
      "lu": 1604,
      "Ġbetter": 1605,
      "ploy": 1606,
      "Ġnon": 1607,
      "Ġplay": 1608,
      "Ġche": 1609,
      "Ġrece": 1610,
      "Ġ198": 1611,
      "irc": 1612,
      "Ġhig": 1613,
      "Ġanal": 1614,
      "ither": 1615,
      "ole": 1616,
      "ĠâĢĶ": 1617,
      "Ġdel": 1618,
      "Ġreal": 1619,
      "ĠPl": 1620,
      "ways": 1621,
      "Ġsaf": 1622,
      "tt": 1623,
      "Ġfree": 1624,
      "Ġ12": 1625,
      "Ġput": 1626,
      "Ġstruct": 1627,
      "ĠOn": 1628,
      "ĠSci": 1629,
      "oint": 1630,
      "Ġkeep": 1631,
      "11": 1632,
      "Ġable": 1633,
      "ley": 1634,
      "Ġothers": 1635,
      "Ġcost": 1636,
      "ental": 1637,
      "iness": 1638,
      "ude": 1639,
      "Ġcentury": 1640,
      "urope": 1641,
      "ience": 1642,
      "ym": 1643,
      "Ġrad": 1644,
      "Ġpain": 1645,
      "icle": 1646,
      "Ġaccess": 1647,
      "ĠAf": 1648,
      "etic": 1649,
      "urther": 1650,
      "Ġfac": 1651,
      "Ġobs": 1652,
      "Ġbased": 1653,
      "Ġcond": 1654,
      "Ġcase": 1655,
      "ĠTo": 1656,
      "Ġmonth": 1657,
      "Ġcause": 1658,
      "Ġlist": 1659,
      "Ġgiven": 1660,
      "Ġnatural": 1661,
      "ggest": 1662,
      "unt": 1663,
      "Ġmean": 1664,
      "ised": 1665,
      "oks": 1666,
      "atory": 1667,
      "por": 1668,
      "Ġcancer": 1669,
      "rid": 1670,
      "sw": 1671,
      "ilar": 1672,
      "ĠEar": 1673,
      "ends": 1674,
      "200": 1675,
      "Ġseem": 1676,
      "Ġsignific": 1677,
      "ills": 1678,
      "Ġuntil": 1679,
      "work": 1680,
      "Ġlittle": 1681,
      "Ġhead": 1682,
      "Ġcomput": 1683,
      "Ġrecord": 1684,
      "Ġlangu": 1685,
      "Ġhapp": 1686,
      "eb": 1687,
      "Ġ$": 1688,
      "ored": 1689,
      "alf": 1690,
      "Ġauthor": 1691,
      "Ġappear": 1692,
      "ler": 1693,
      "obal": 1694,
      "Ġproblems": 1695,
      "aken": 1696,
      "Ġthings": 1697,
      "Ġprevent": 1698,
      "Ġ.": 1699,
      "pr": 1700,
      "Ġclear": 1701,
      "15": 1702,
      "ured": 1703,
      "Ġbook": 1704,
      "Ġsuggest": 1705,
      "Ġspace": 1706,
      "ling": 1707,
      "Ġur": 1708,
      "Ġmillion": 1709,
      "over": 1710,
      "ĠUS": 1711,
      "not": 1712,
      "be": 1713,
      "mber": 1714,
      "aim": 1715,
      "Ġ16": 1716,
      "ately": 1717,
      "Ġshort": 1718,
      "Ġturn": 1719,
      "ething": 1720,
      "isc": 1721,
      "ĠOr": 1722,
      "idd": 1723,
      "\".": 1724,
      "Ġdeath": 1725,
      "ĠWar": 1726,
      "Ġassoci": 1727,
      "Ġplant": 1728,
      "Ġrele": 1729,
      "Ġsing": 1730,
      "ĠBrit": 1731,
      "Ġamount": 1732,
      "orld": 1733,
      "Ġcomb": 1734,
      "pect": 1735,
      "Ġlet": 1736,
      "ĠEurope": 1737,
      "ĠJohn": 1738,
      "Ġage": 1739,
      "orts": 1740,
      "ued": 1741,
      "Ġ0": 1742,
      "ument": 1743,
      "Ġmot": 1744,
      "Ġpopulation": 1745,
      "for": 1746,
      "ides": 1747,
      "ĠAll": 1748,
      "aps": 1749,
      "Ġlevels": 1750,
      "aper": 1751,
      "Ġcome": 1752,
      "Ġdescrib": 1753,
      "ope": 1754,
      "ogn": 1755,
      "Ġchem": 1756,
      "nal": 1757,
      "Ġfunction": 1758,
      "itor": 1759,
      "ĠJew": 1760,
      "ances": 1761,
      "As": 1762,
      "Ġbenef": 1763,
      "rate": 1764,
      "ones": 1765,
      "ication": 1766,
      "min": 1767,
      "ung": 1768,
      "Ġ197": 1769,
      "Ġleft": 1770,
      "Ġabove": 1771,
      "Ġresearc": 1772,
      "Ġproblem": 1773,
      "Ġindust": 1774,
      "vious": 1775,
      "Ġhard": 1776,
      "Ġtemper": 1777,
      "Ġcases": 1778,
      "app": 1779,
      "Ġleast": 1780,
      "Ġoffic": 1781,
      "Ġfil": 1782,
      "ledge": 1783,
      "ĠAfric": 1784,
      "elf": 1785,
      "ormal": 1786,
      "Ġspecial": 1787,
      "Ġsomething": 1788,
      "Ġer": 1789,
      "Ġcal": 1790,
      "rug": 1791,
      "oph": 1792,
      "Ġusually": 1793,
      "enn": 1794,
      "ators": 1795,
      "Ġtechnology": 1796,
      "by": 1797,
      "iam": 1798,
      "Ġrepresent": 1799,
      "Ġestab": 1800,
      "Ġrights": 1801,
      "Ġsite": 1802,
      "Ġexist": 1803,
      "Ġsystems": 1804,
      "Ġheart": 1805,
      "Ġhowever": 1806,
      "Ġill": 1807,
      "Ġsw": 1808,
      "Ġconn": 1809,
      "ales": 1810,
      "erence": 1811,
      "Ġbecame": 1812,
      "ences": 1813,
      "Ġcrit": 1814,
      "Ġpolitical": 1815,
      "Ġside": 1816,
      "ocus": 1817,
      "ĠNorth": 1818,
      "Ġmembers": 1819,
      "aster": 1820,
      "ode": 1821,
      "ĠBe": 1822,
      "Ġbus": 1823,
      "icult": 1824,
      "ots": 1825,
      "ember": 1826,
      "30": 1827,
      "Ġwords": 1828,
      "Ġinvest": 1829,
      "Ġmult": 1830,
      "Ġgre": 1831,
      "50": 1832,
      "Ġapplic": 1833,
      "ox": 1834,
      "uture": 1835,
      "Ġcommunity": 1836,
      "Ġdays": 1837,
      "ray": 1838,
      "Ġtype": 1839,
      "Ġ--": 1840,
      "rim": 1841,
      "Ġcountries": 1842,
      "We": 1843,
      "Ġmag": 1844,
      "lement": 1845,
      "ctor": 1846,
      "Ġyoung": 1847,
      "Ġdr": 1848,
      "Ġterm": 1849,
      "Ġalong": 1850,
      "Ġcourse": 1851,
      "Ġtru": 1852,
      "Ġvol": 1853,
      "Ġeducation": 1854,
      "ĠSoc": 1855,
      "Ġ14": 1856,
      "Ġpast": 1857,
      "Ġdra": 1858,
      "Ġdri": 1859,
      "ending": 1860,
      "ĠGen": 1861,
      "sc": 1862,
      "oman": 1863,
      "Ġflow": 1864,
      "wh": 1865,
      "Ġnecess": 1866,
      "right": 1867,
      "NA": 1868,
      "Ġgeneral": 1869,
      "Ġlikely": 1870,
      "If": 1871,
      "Ġnever": 1872,
      "Ġtoget": 1873,
      "ĠSc": 1874,
      "Ġconditions": 1875,
      "Ġtogether": 1876,
      "Ġnext": 1877,
      "selves": 1878,
      "ape": 1879,
      "Ġchanges": 1880,
      "Ġvir": 1881,
      "most": 1882,
      "Ġcirc": 1883,
      "Ġsignificant": 1884,
      "ĠTe": 1885,
      "ird": 1886,
      "ison": 1887,
      "ane": 1888,
      "Ġbegin": 1889,
      "ortun": 1890,
      "aining": 1891,
      "Ġparent": 1892,
      "Ġspecific": 1893,
      "val": 1894,
      "ruction": 1895,
      "Ġsurface": 1896,
      "het": 1897,
      "ours": 1898,
      "Ġlearning": 1899,
      "Ġnet": 1900,
      "St": 1901,
      "Ġcharacter": 1902,
      "__": 1903,
      "ands": 1904,
      "ivil": 1905,
      "ipp": 1906,
      "Ġhaving": 1907,
      "Ġdue": 1908,
      "ĠMay": 1909,
      "Ġenc": 1910,
      "ĠGo": 1911,
      "artment": 1912,
      "Ġgr": 1913,
      "atch": 1914,
      "Ġresults": 1915,
      "ilities": 1916,
      "Ġmaking": 1917,
      "ecially": 1918,
      "ression": 1919,
      "Ġask": 1920,
      "ively": 1921,
      "Ġmov": 1922,
      "Ġ30": 1923,
      "Ġsimilar": 1924,
      "yd": 1925,
      "anc": 1926,
      "earch": 1927,
      "ĠYork": 1928,
      "ĠDep": 1929,
      "ĠGerm": 1930,
      "ĠâĢĺ": 1931,
      "Ġaway": 1932,
      "oot": 1933,
      "Ġcolle": 1934,
      "ĠWhat": 1935,
      "Ġgroups": 1936,
      "Ġplac": 1937,
      "Ġdam": 1938,
      "ges": 1939,
      "asing": 1940,
      "Ġkind": 1941,
      "Ġcomplete": 1942,
      "Ġprofess": 1943,
      "An": 1944,
      "ribut": 1945,
      "Ġcity": 1946,
      "What": 1947,
      "Ġworks": 1948,
      "Ġpatients": 1949,
      "Ġ196": 1950,
      "oney": 1951,
      "Ġcho": 1952,
      "ĠLe": 1953,
      "Ġrespons": 1954,
      "ĠRep": 1955,
      "There": 1956,
      "Ġz": 1957,
      "Ġstudies": 1958,
      "especially": 1959,
      "cle": 1960,
      "Ġtoday": 1961,
      "Ġnational": 1962,
      "Ġenough": 1963,
      "Ġprim": 1964,
      "Ġlanguage": 1965,
      "ery": 1966,
      "ffic": 1967,
      "Ġteac": 1968,
      "ott": 1969,
      "ĠOne": 1970,
      "ĠEarth": 1971,
      "ĠSo": 1972,
      "ĠMar": 1973,
      "Ġscience": 1974,
      "Ġdiscuss": 1975,
      "iting": 1976,
      "Ġgive": 1977,
      "ĠWorld": 1978,
      "amin": 1979,
      "13": 1980,
      "Ġsum": 1981,
      "Ġstrong": 1982,
      "Ġimpact": 1983,
      "ires": 1984,
      "ederal": 1985,
      "Ġfuture": 1986,
      "Ġlower": 1987,
      "Ġlearn": 1988,
      "Ġbehav": 1989,
      "Ġground": 1990,
      "ĠBl": 1991,
      "Ġfive": 1992,
      "af": 1993,
      "Ġfocus": 1994,
      "Ġdifficult": 1995,
      "Ġcreat": 1996,
      "Ġimm": 1997,
      "Ġsubject": 1998,
      "Ġfeel": 1999,
      "ilt": 2000,
      "Ġla": 2001,
      "ĠDr": 2002,
      "iation": 2003,
      "ency": 2004,
      "Ġey": 2005,
      "Ġupon": 2006,
      "agement": 2007,
      ".)": 2008,
      "Ġplants": 2009,
      "Ġincrease": 2010,
      "ĠCal": 2011,
      "rel": 2012,
      "ublic": 2013,
      "ump": 2014,
      "Ġvarious": 2015,
      "Ġfund": 2016,
      "Ġhigher": 2017,
      "port": 2018,
      "rated": 2019,
      "Ġfurther": 2020,
      "rams": 2021,
      "istic": 2022,
      "ĠThat": 2023,
      "omes": 2024,
      "Ġeffects": 2025,
      "Ġalways": 2026,
      "duct": 2027,
      "Ġevidence": 2028,
      "Ġphot": 2029,
      "Ġresearchers": 2030,
      "Ġfull": 2031,
      "ournal": 2032,
      "Ġreturn": 2033,
      "Ġdoc": 2034,
      "ule": 2035,
      "--": 2036,
      "Ġword": 2037,
      "ĠAmerica": 2038,
      "ĠAb": 2039,
      "Ġitself": 2040,
      "Ġseen": 2041,
      "ĠAss": 2042,
      "ique": 2043,
      "Ġpolic": 2044,
      "ream": 2045,
      "Ġline": 2046,
      "Ġ2012": 2047,
      "17": 2048,
      "For": 2049,
      "Ġsex": 2050,
      "Ġdeveloped": 2051,
      "ĠAct": 2052,
      "Ġfield": 2053,
      "Ġeither": 2054,
      "ĠSome": 2055,
      "Ġmedical": 2056,
      "ĠSy": 2057,
      "Ġprob": 2058,
      "Ġrather": 2059,
      "Ġprotect": 2060,
      "ready": 2061,
      "Ġwhether": 2062,
      "Ġindic": 2063,
      "Ġann": 2064,
      "ĠGe": 2065,
      "Ġacross": 2066,
      "ĠHis": 2067,
      "Ġtry": 2068,
      "side": 2069,
      "Ġespecially": 2070,
      "Ġoil": 2071,
      "ibility": 2072,
      "ae": 2073,
      "Ġknowledge": 2074,
      "lam": 2075,
      "ervation": 2076,
      "Ġpressure": 2077,
      "Ġfish": 2078,
      "Ġresources": 2079,
      "Ġneeds": 2080,
      "lo": 2081,
      "Ġclose": 2082,
      "Ġsingle": 2083,
      "SA": 2084,
      "):": 2085,
      "Ġemploy": 2086,
      "ann": 2087,
      "ront": 2088,
      "Ġtaken": 2089,
      "Ġrequire": 2090,
      "ches": 2091,
      "son": 2092,
      "Ġlive": 2093,
      "Ġrelations": 2094,
      "Ġinflu": 2095,
      "Ġloss": 2096,
      "thing": 2097,
      "Ġworking": 2098,
      "my": 2099,
      "ĠCar": 2100,
      "Ġcollect": 2101,
      "ĠX": 2102,
      "ules": 2103,
      "Ġteam": 2104,
      "alt": 2105,
      "Ġstep": 2106,
      "Ġess": 2107,
      "etimes": 2108,
      "Ġblack": 2109,
      "Ġcame": 2110,
      "Ġlay": 2111,
      "ĠState": 2112,
      "Ġquestion": 2113,
      "hib": 2114,
      "sh": 2115,
      "Ġdest": 2116,
      "Ġdrug": 2117,
      "Ġkill": 2118,
      "aves": 2119,
      "Ġevent": 2120,
      "Ġcreate": 2121,
      "sych": 2122,
      "Ġaddress": 2123,
      "Ġfail": 2124,
      "acy": 2125,
      "ĠSouth": 2126,
      "iol": 2127,
      "Ġbrain": 2128,
      "Ġaccording": 2129,
      "apt": 2130,
      "itude": 2131,
      "Ġfall": 2132,
      "itary": 2133,
      "Ġwhy": 2134,
      "overed": 2135,
      "Ġways": 2136,
      "Ġred": 2137,
      "Ġsent": 2138,
      "Ġstat": 2139,
      "ĠBy": 2140,
      "uel": 2141,
      "Ġwhite": 2142,
      "Ġconcer": 2143,
      "ysis": 2144,
      "hing": 2145,
      "Ġconsider": 2146,
      "Ġthemselves": 2147,
      "Ġbelow": 2148,
      "rict": 2149,
      "Ġparticip": 2150,
      "Ġalready": 2151,
      "Ġneg": 2152,
      "Ġgoing": 2153,
      "Ġri": 2154,
      "stitute": 2155,
      "ttp": 2156,
      "org": 2157,
      "ites": 2158,
      "Ġpublished": 2159,
      "14": 2160,
      "osis": 2161,
      "Ġconsum": 2162,
      "mb": 2163,
      "Ġopt": 2164,
      "Ġmic": 2165,
      "Ġdia": 2166,
      "Ġhalf": 2167,
      "Ġtoward": 2168,
      "Ġmeet": 2169,
      "Ġrepl": 2170,
      "//": 2171,
      "Ġreason": 2172,
      "Ġliving": 2173,
      "ications": 2174,
      "Ġpay": 2175,
      "ĠAust": 2176,
      "Ġ2010": 2177,
      "Ġphysical": 2178,
      "roll": 2179,
      "Ġtext": 2180,
      "Ġsun": 2181,
      "Ġwr": 2182,
      "ĠHealth": 2183,
      "ober": 2184,
      "Ġthought": 2185,
      "eter": 2186,
      "Ġexperience": 2187,
      "epend": 2188,
      "Ġmodel": 2189,
      "Ġskin": 2190,
      "Ġdi": 2191,
      "Ġprote": 2192,
      "itted": 2193,
      "ification": 2194,
      "fer": 2195,
      "Ġsens": 2196,
      "Ġdone": 2197,
      "Ġreally": 2198,
      "rown": 2199,
      "ibr": 2200,
      "Ġsource": 2201,
      "Ġhold": 2202,
      "Ġclaim": 2203,
      "Ġglobal": 2204,
      "Ġtool": 2205,
      "Ġ13": 2206,
      "Ġregion": 2207,
      "Ġhouse": 2208,
      "Ġonce": 2209,
      "Ġstates": 2210,
      "esc": 2211,
      "aut": 2212,
      "Ġrole": 2213,
      "Ġhistor": 2214,
      "gest": 2215,
      "oll": 2216,
      "urch": 2217,
      "Ġactivity": 2218,
      "Ġinit": 2219,
      "Ġarg": 2220,
      "urity": 2221,
      "ĠII": 2222,
      "Ġkey": 2223,
      "ĠHist": 2224,
      "rie": 2225,
      "Ã©": 2226,
      "utes": 2227,
      "ened": 2228,
      "aring": 2229,
      "Ġeconomic": 2230,
      "://": 2231,
      "like": 2232,
      "reg": 2233,
      "Ġclimate": 2234,
      "Ġmodern": 2235,
      "ER": 2236,
      "Ġmass": 2237,
      "Ġproduction": 2238,
      "Ġbegan": 2239,
      "aching": 2240,
      "Ġaccount": 2241,
      "lor": 2242,
      "Ġgrowth": 2243,
      "Ġscientists": 2244,
      "Ġrange": 2245,
      "chie": 2246,
      "ptoms": 2247,
      "atures": 2248,
      "Ġreact": 2249,
      "Ġrelig": 2250,
      "onst": 2251,
      "Ġtook": 2252,
      "verage": 2253,
      "Ġcomplex": 2254,
      "Ġconsidered": 2255,
      "ĠEnglish": 2256,
      "Ġcop": 2257,
      "ĠWith": 2258,
      "ĠPres": 2259,
      "ateg": 2260,
      "Ġtot": 2261,
      "Ġdeg": 2262,
      "Ġwhole": 2263,
      "ried": 2264,
      "Ġincreased": 2265,
      "ights": 2266,
      "Ġanimals": 2267,
      "Ġ11": 2268,
      "Ġchemical": 2269,
      "Ġabs": 2270,
      "Ġmind": 2271,
      "Ġwide": 2272,
      "lying": 2273,
      "ulations": 2274,
      "Ġconcept": 2275,
      "Ġsepar": 2276,
      "Ġpred": 2277,
      "now": 2278,
      "Ġcannot": 2279,
      "augh": 2280,
      "Ġfamil": 2281,
      "mp": 2282,
      "nam": 2283,
      "Ġwind": 2284,
      "attle": 2285,
      "Ġcr": 2286,
      "reme": 2287,
      "Ġneeded": 2288,
      "Ġprovides": 2289,
      "Ġproducts": 2290,
      "Ġ|": 2291,
      "go": 2292,
      "fact": 2293,
      "Ġcreated": 2294,
      "Ġactivities": 2295,
      "Ġcy": 2296,
      "Ġansw": 2297,
      "Ġrecogn": 2298,
      "Al": 2299,
      "ivity": 2300,
      "Ġmoney": 2301,
      "Ġentire": 2302,
      "estern": 2303,
      "aged": 2304,
      "Ġrequired": 2305,
      "Ġrecent": 2306,
      "Ġfrequ": 2307,
      "icine": 2308,
      "vere": 2309,
      "iple": 2310,
      "Ġcomputer": 2311,
      "Ġdom": 2312,
      "cient": 2313,
      "Ġpriv": 2314,
      "cil": 2315,
      "Ġsize": 2316,
      "ster": 2317,
      "Ġarticle": 2318,
      "bon": 2319,
      "rad": 2320,
      "Ġparts": 2321,
      "Ġvers": 2322,
      "Ġself": 2323,
      "stitution": 2324,
      "Ġquestions": 2325,
      "Ġenvironmental": 2326,
      "ĠMin": 2327,
      "Ġmakes": 2328,
      "Ġtradition": 2329,
      "Ġrelated": 2330,
      "Ġpotential": 2331,
      "Ġsix": 2332,
      "Ġcamp": 2333,
      "apan": 2334,
      "Ġaffect": 2335,
      "Ġmor": 2336,
      "order": 2337,
      "olic": 2338,
      "ched": 2339,
      "oura": 2340,
      "rought": 2341,
      "How": 2342,
      "Ġsoft": 2343,
      "Ġ100": 2344,
      "Ġtypes": 2345,
      "iddle": 2346,
      "Ġstory": 2347,
      "Ġrelative": 2348,
      "Ġbig": 2349,
      "abit": 2350,
      "ĠResearch": 2351,
      "iment": 2352,
      "ume": 2353,
      "Ġbusiness": 2354,
      "Ch": 2355,
      "ask": 2356,
      "16": 2357,
      "Ġfig": 2358,
      "empt": 2359,
      "Ġintrodu": 2360,
      "medi": 2361,
      "Ġdetail": 2362,
      "ĠCo": 2363,
      "Ġnature": 2364,
      "Ġ25": 2365,
      "Ġweek": 2366,
      "Ġengine": 2367,
      "ĠPe": 2368,
      "uation": 2369,
      "Ġalmost": 2370,
      "Ġflu": 2371,
      "Ġwin": 2372,
      "chan": 2373,
      "Ġchall": 2374,
      "Ġobserv": 2375,
      "Ġport": 2376,
      "Ġstudent": 2377,
      "rect": 2378,
      "Ġcut": 2379,
      "Ġver": 2380,
      "Ġyet": 2381,
      "Ġactually": 2382,
      "Ġinteract": 2383,
      "Ġ2011": 2384,
      "Ġissues": 2385,
      "ius": 2386,
      "ington": 2387,
      "ĠDepartment": 2388,
      "Ġprovided": 2389,
      "ĠCenter": 2390,
      "Ġpaper": 2391,
      "Ġtell": 2392,
      "atives": 2393,
      "Ġvalue": 2394,
      "ĠAm": 2395,
      "Ġsubst": 2396,
      "vey": 2397,
      "ĠNo": 2398,
      "Ġpage": 2399,
      "ounds": 2400,
      "When": 2401,
      "ĠComp": 2402,
      "ĠStud": 2403,
      "Ġmaterials": 2404,
      "ĠBritish": 2405,
      "ai": 2406,
      "Ġimprove": 2407,
      "ĠGu": 2408,
      "Ġsurv": 2409,
      "Ġ50": 2410,
      "Ġlink": 2411,
      "sequ": 2412,
      "Ġge": 2413,
      "ronic": 2414,
      "ĠCanad": 2415,
      "Ġtemperature": 2416,
      "ma": 2417,
      "Ġcle": 2418,
      "ops": 2419,
      "oses": 2420,
      "Ġsuper": 2421,
      "Ġidea": 2422,
      "pid": 2423,
      "ript": 2424,
      "urs": 2425,
      "Ġshows": 2426,
      "Ġmonths": 2427,
      "ĠSec": 2428,
      "ables": 2429,
      "Ġstandard": 2430,
      "Ġsense": 2431,
      "ney": 2432,
      "Ġprograms": 2433,
      "Ġadult": 2434,
      "ĠScience": 2435,
      "eds": 2436,
      "ĠCont": 2437,
      "Ġrate": 2438,
      "Ġregard": 2439,
      "Ġearth": 2440,
      "minist": 2441,
      "Ġcit": 2442,
      "ety": 2443,
      "uck": 2444,
      "Ġachie": 2445,
      "Ġaccept": 2446,
      "Ġtherap": 2447,
      "ival": 2448,
      "To": 2449,
      "raft": 2450,
      "Ġreduce": 2451,
      "Ġgreen": 2452,
      "ĠBo": 2453,
      "Ġpractice": 2454,
      "Ġsymptoms": 2455,
      "ply": 2456,
      "atter": 2457,
      "ĠShe": 2458,
      "Ġnormal": 2459,
      "Ġdeb": 2460,
      "ush": 2461,
      "Ġsure": 2462,
      "ĠJapan": 2463,
      "ister": 2464,
      "Ġproduce": 2465,
      "oes": 2466,
      "ensive": 2467,
      "Ġaction": 2468,
      "ĠJu": 2469,
      "Ġ2008": 2470,
      "Ġmaint": 2471,
      "Ġassociated": 2472,
      "Ġ/": 2473,
      "Ġgas": 2474,
      "acks": 2475,
      "Ġbuilding": 2476,
      "Ġcoun": 2477,
      "Ġdiv": 2478,
      "umb": 2479,
      "adem": 2480,
      "Ġservice": 2481,
      "Ġtraining": 2482,
      "Ġarch": 2483,
      "Ġrecomm": 2484,
      "iction": 2485,
      "amb": 2486,
      "Ġreported": 2487,
      "Ġwild": 2488,
      "ging": 2489,
      "put": 2490,
      "Ġemer": 2491,
      "Ġsam": 2492,
      "Ġtrue": 2493,
      "Ġforce": 2494,
      "Ġnecessary": 2495,
      "Ġbuilt": 2496,
      "Ġce": 2497,
      "ĠCor": 2498,
      "Ġconduct": 2499,
      "ĠDav": 2500,
      "ips": 2501,
      "rial": 2502,
      "Ġever": 2503,
      "Ġliter": 2504,
      "'re": 2505,
      "inary": 2506,
      "ĠAfter": 2507,
      "Ġprevious": 2508,
      "Ġstructure": 2509,
      "Ġthreat": 2510,
      "lim": 2511,
      "Ġfri": 2512,
      "Ġtown": 2513,
      "usion": 2514,
      "ternal": 2515,
      "erve": 2516,
      "erous": 2517,
      "lex": 2518,
      "ections": 2519,
      "Ġmeasure": 2520,
      "Ġrelationship": 2521,
      "Ġtotal": 2522,
      "Ġstri": 2523,
      "ĠRet": 2524,
      "Ġdig": 2525,
      "Ġled": 2526,
      "Ġcondition": 2527,
      "Ġthroughout": 2528,
      "ext": 2529,
      "Ġlonger": 2530,
      "Ġcolor": 2531,
      "Ġgreater": 2532,
      "Ġlab": 2533,
      "ĠMan": 2534,
      "acc": 2535,
      "ID": 2536,
      "rans": 2537,
      "Ġsett": 2538,
      "Ġdesigned": 2539,
      "Ġbirth": 2540,
      "lies": 2541,
      "uary": 2542,
      "ene": 2543,
      "igation": 2544,
      "lt": 2545,
      "ĠJan": 2546,
      "Ġrev": 2547,
      "Ġheav": 2548,
      "Ġquick": 2549,
      "rench": 2550,
      "Ġspe": 2551,
      "Ġrespect": 2552,
      "aff": 2553,
      "pro": 2554,
      "izing": 2555,
      "Ġopportun": 2556,
      "imately": 2557,
      "Ġparents": 2558,
      "Ġir": 2559,
      "Ġavoid": 2560,
      "Ġfat": 2561,
      "Ġissue": 2562,
      "mon": 2563,
      "ming": 2564,
      "Ġens": 2565,
      "osition": 2566,
      "Ġcoll": 2567,
      "But": 2568,
      "ccording": 2569,
      "Ġorigin": 2570,
      "Ġbar": 2571,
      "gram": 2572,
      "ps": 2573,
      "ze": 2574,
      "ĠMarch": 2575,
      "duc": 2576,
      "aries": 2577,
      "ĠInstitute": 2578,
      "arily": 2579,
      "Ġsimple": 2580,
      "Ġcaused": 2581,
      "ino": 2582,
      "Ġfarm": 2583,
      "rand": 2584,
      "Ġoriginal": 2585,
      "Ġofficial": 2586,
      "Ġdiet": 2587,
      "ief": 2588,
      "Ġmarket": 2589,
      "Ġviol": 2590,
      "Ġability": 2591,
      "Ġunderstanding": 2592,
      "ror": 2593,
      "Ġtax": 2594,
      "Ġcontact": 2595,
      "ES": 2596,
      "Ġcivil": 2597,
      "ĠCons": 2598,
      "Ġmechan": 2599,
      "Ġpattern": 2600,
      "Ġ194": 2601,
      "Ġ2009": 2602,
      "ĠCalif": 2603,
      "Ġlot": 2604,
      "ows": 2605,
      "oon": 2606,
      "ĠEd": 2607,
      "ropri": 2608,
      "Ġpurp": 2609,
      "Ġhours": 2610,
      "Ġtaking": 2611,
      "Ġinternational": 2612,
      "Ġ2007": 2613,
      "ham": 2614,
      "Ġmedia": 2615,
      "asc": 2616,
      "Ġsuff": 2617,
      "leep": 2618,
      "Ġhttp": 2619,
      "ĠInternational": 2620,
      "Ġterms": 2621,
      "Ġnetwork": 2622,
      "icles": 2623,
      "Ġquality": 2624,
      "Ġvit": 2625,
      "fully": 2626,
      "Ġsometimes": 2627,
      "dom": 2628,
      "Ġsqu": 2629,
      "ached": 2630,
      "Ġcontent": 2631,
      "Ġtravel": 2632,
      "21": 2633,
      "Ġwritten": 2634,
      "On": 2635,
      "inks": 2636,
      "Ġcontain": 2637,
      "Ġdiagn": 2638,
      "Ġmanagement": 2639,
      "ĠKing": 2640,
      "ising": 2641,
      "Ġeffective": 2642,
      "Ġschools": 2643,
      "bo": 2644,
      "istance": 2645,
      "Ġshown": 2646,
      "Ġanalysis": 2647,
      "utions": 2648,
      "based": 2649,
      "che": 2650,
      "Ġut": 2651,
      "Ġnuc": 2652,
      "Ġstop": 2653,
      "Ġexerc": 2654,
      "Ġweight": 2655,
      "Ġattempt": 2656,
      "Ġjud": 2657,
      "aters": 2658,
      "Ġbring": 2659,
      "Ġlate": 2660,
      "Ġgenerally": 2661,
      "Ġapproach": 2662,
      "Ġbur": 2663,
      "Ġmatter": 2664,
      "Ġforms": 2665,
      "Ġinteg": 2666,
      "ornia": 2667,
      "Ġincreasing": 2668,
      "Ġlabor": 2669,
      "Ġconc": 2670,
      "ĠFran": 2671,
      "pril": 2672,
      "ades": 2673,
      "nces": 2674,
      "Ġemb": 2675,
      "olec": 2676,
      "Ġuses": 2677,
      "Ġinvolved": 2678,
      "ĠPress": 2679,
      "Ġcomes": 2680,
      "Ġproduced": 2681,
      "Ġvisit": 2682,
      "Ġindividuals": 2683,
      "Ġrefer": 2684,
      "yl": 2685,
      "eration": 2686,
      "Ġinj": 2687,
      "Ġparticularly": 2688,
      "Ġtheory": 2689,
      "ricult": 2690,
      "Ġsimply": 2691,
      "Ġpopular": 2692,
      "Ġprobably": 2693,
      "Ġsources": 2694,
      "Ġpath": 2695,
      "Ġcapt": 2696,
      "ening": 2697,
      "Ġfederal": 2698,
      "ctions": 2699,
      "Ġnumbers": 2700,
      "Ġscientific": 2701,
      "undred": 2702,
      "aving": 2703,
      "Ġeffic": 2704,
      "Ġlog": 2705,
      "ĠWest": 2706,
      "Ġevents": 2707,
      "Ġoutside": 2708,
      "Ġdocument": 2709,
      "25": 2710,
      "hood": 2711,
      "ira": 2712,
      "ĠCount": 2713,
      "Ġindepend": 2714,
      "ĠSchool": 2715,
      "Ġdeep": 2716,
      "aging": 2717,
      "useum": 2718,
      "onse": 2719,
      "ĠMus": 2720,
      "ĠHar": 2721,
      "Ġspread": 2722,
      "ashington": 2723,
      "Ġmilitary": 2724,
      "cean": 2725,
      "Ġheld": 2726,
      "ressed": 2727,
      "199": 2728,
      "ĠPresident": 2729,
      "You": 2730,
      "Ġsat": 2731,
      "Ġjob": 2732,
      "lands": 2733,
      "light": 2734,
      "Ġdeveloping": 2735,
      "Ġface": 2736,
      "ĠAug": 2737,
      "Ġbehavior": 2738,
      "hern": 2739,
      "uk": 2740,
      "Ġmeaning": 2741,
      "haps": 2742,
      "Ġcompl": 2743,
      "Ġvide": 2744,
      "Ġsea": 2745,
      "Ġperm": 2746,
      "amed": 2747,
      "ĠAustral": 2748,
      "ores": 2749,
      "Ġmovement": 2750,
      "Ġpict": 2751,
      "ribution": 2752,
      "Ġ24": 2753,
      "Ġseries": 2754,
      "Ġposition": 2755,
      "80": 2756,
      "bre": 2757,
      "abet": 2758,
      "Ġfire": 2759,
      "ĠApp": 2760,
      "Ġfactors": 2761,
      "www": 2762,
      "Ġservices": 2763,
      "Ġaverage": 2764,
      "ĠPr": 2765,
      "Ġbasic": 2766,
      "Ġfa": 2767,
      "Ġ40": 2768,
      "rieved": 2769,
      "osure": 2770,
      "Ġpersonal": 2771,
      "Ġnorth": 2772,
      "see": 2773,
      "irit": 2774,
      "ĠCalifornia": 2775,
      "Ġfem": 2776,
      "ĠJune": 2777,
      "Ġcourt": 2778,
      "Ġthus": 2779,
      "Ġago": 2780,
      "Ġetc": 2781,
      "Ġindustry": 2782,
      "ana": 2783,
      "ength": 2784,
      "Ġdou": 2785,
      "ev": 2786,
      "Ġthous": 2787,
      "Ġslow": 2788,
      "Ġfront": 2789,
      "ĠFrench": 2790,
      "thern": 2791,
      "where": 2792,
      "Ġwhose": 2793,
      "Ġcompany": 2794,
      "Ġincludes": 2795,
      "Ġthing": 2796,
      "ĠChina": 2797,
      "ternet": 2798,
      "eding": 2799,
      "eal": 2800,
      "Ġconcent": 2801,
      "ĠWill": 2802,
      "Ġcommand": 2803,
      "Ġserious": 2804,
      "ĠPer": 2805,
      "Ġalthough": 2806,
      "ĠQu": 2807,
      "ĠAfrican": 2808,
      "Ġestablished": 2809,
      "ners": 2810,
      "rast": 2811,
      "Ġinterp": 2812,
      "Ġexperien": 2813,
      "ĠJewish": 2814,
      "lease": 2815,
      "ecause": 2816,
      "ĠInf": 2817,
      "na": 2818,
      "ancy": 2819,
      "ĠRiver": 2820,
      "orthern": 2821,
      "Ġdisp": 2822,
      "Ġremov": 2823,
      "Ġx": 2824,
      "Ġmess": 2825,
      "ĠAnt": 2826,
      "ift": 2827,
      ");": 2828,
      "Ġtar": 2829,
      "Ġfile": 2830,
      "Ġhost": 2831,
      "Ġexc": 2832,
      "vention": 2833,
      "ese": 2834,
      "Ġheat": 2835,
      "orders": 2836,
      "Ġelectric": 2837,
      "Ġdemonst": 2838,
      "Ġfeet": 2839,
      "ĠSept": 2840,
      "ulate": 2841,
      "ĠMore": 2842,
      "Ġcarbon": 2843,
      "ĠWhile": 2844,
      "ĠJuly": 2845,
      "IS": 2846,
      "ĠIm": 2847,
      "overy": 2848,
      "rael": 2849,
      "aches": 2850,
      "Ġcentral": 2851,
      "ĠPart": 2852,
      "Ġwriting": 2853,
      "ony": 2854,
      "Ġreview": 2855,
      "Ġnation": 2856,
      "Ġdoctor": 2857,
      "ĠIndian": 2858,
      "Ġcitiz": 2859,
      "ĠSu": 2860,
      "ĠWashington": 2861,
      "ĠVal": 2862,
      "ender": 2863,
      "uge": 2864,
      "ĠÂ": 2865,
      "Ġap": 2866,
      "bor": 2867,
      "Ġhundred": 2868,
      "ĠInt": 2869,
      "Ġimage": 2870,
      "cies": 2871,
      "ĠMe": 2872,
      "Ġcommunities": 2873,
      "IN": 2874,
      "ille": 2875,
      "Ġbreak": 2876,
      "ĠRetrieved": 2877,
      "hold": 2878,
      "cember": 2879,
      "pper": 2880,
      "isms": 2881,
      "Ġthird": 2882,
      "Ġcompan": 2883,
      "Ġworkers": 2884,
      "Ġonline": 2885,
      "ĠPar": 2886,
      "istry": 2887,
      "Ġpsych": 2888,
      "Ġvariety": 2889,
      "AT": 2890,
      "anced": 2891,
      "Ġlives": 2892,
      "Ġattention": 2893,
      "Ġsou": 2894,
      "imum": 2895,
      "ĠCong": 2896,
      "Ġtherefore": 2897,
      "Ġincluded": 2898,
      "Ġpoor": 2899,
      "Ġsection": 2900,
      "Ġking": 2901,
      "ovember": 2902,
      "Ġactive": 2903,
      "Ġassess": 2904,
      "coh": 2905,
      "Ġsust": 2906,
      "life": 2907,
      "Ġtalk": 2908,
      "Ġox": 2909,
      "Ġnut": 2910,
      "cell": 2911,
      "Ġcontinue": 2912,
      "ided": 2913,
      "uman": 2914,
      "Ġgenetic": 2915,
      "âĢ¦": 2916,
      "Ġaltern": 2917,
      "ĠChristian": 2918,
      "ĠEduc": 2919,
      "unch": 2920,
      "Ġimmedi": 2921,
      "Ġinstead": 2922,
      "Ġestim": 2923,
      "ns": 2924,
      "istics": 2925,
      "issions": 2926,
      "Ġpolicy": 2927,
      "oly": 2928,
      "reng": 2929,
      "Ġextreme": 2930,
      "Ġanimal": 2931,
      "ON": 2932,
      "erson": 2933,
      "Ġpoll": 2934,
      "Ġcat": 2935,
      "Ġful": 2936,
      "Ġmount": 2937,
      "ĠTra": 2938,
      "ography": 2939,
      "Ġcauses": 2940,
      "aily": 2941,
      "Ġconsist": 2942,
      "ĠApril": 2943,
      "uls": 2944,
      "estic": 2945,
      "Ġbelieve": 2946,
      "Ġsoftware": 2947,
      "mosp": 2948,
      "itation": 2949,
      "omb": 2950,
      "Ġbooks": 2951,
      "gency": 2952,
      "Ġdog": 2953,
      "Ġtests": 2954,
      "Ġbroad": 2955,
      "Ġmill": 2956,
      "uth": 2957,
      "Ġvari": 2958,
      "Ġcapital": 2959,
      "Ġnearly": 2960,
      "Ġculture": 2961,
      "Ġsafe": 2962,
      "Ġhabit": 2963,
      "Ġcompet": 2964,
      "Ġlaws": 2965,
      "OR": 2966,
      "Ġmethods": 2967,
      "ĠGovern": 2968,
      "22": 2969,
      "ĠAc": 2970,
      "Ġprep": 2971,
      "Ġadded": 2972,
      "Ġdefin": 2973,
      "Ġtur": 2974,
      "Ġwent": 2975,
      "Ġwall": 2976,
      "Ġseems": 2977,
      "ĠAg": 2978,
      "ilos": 2979,
      "ulated": 2980,
      "ads": 2981,
      "Ġcontinued": 2982,
      "Ġast": 2983,
      "ĠIS": 2984,
      "Ġattack": 2985,
      "Ġmiles": 2986,
      "AR": 2987,
      "erg": 2988,
      "Ġmother": 2989,
      "Ġegg": 2990,
      "Ġhumans": 2991,
      "Ġsafety": 2992,
      "ĠBar": 2993,
      "Ġadditional": 2994,
      "Ġbul": 2995,
      "ĠHer": 2996,
      "Ġcheck": 2997,
      "Ġsouth": 2998,
      "Ġwebs": 2999,
      "Ġregular": 3000,
      "Ġleaders": 3001,
      "Ġbr": 3002,
      "Ġnight": 3003,
      "Ġsearch": 3004,
      "ĠChild": 3005,
      "Ġcross": 3006,
      "ama": 3007,
      "ĠPre": 3008,
      "ĠOct": 3009,
      "\",": 3010,
      "aul": 3011,
      "nes": 3012,
      "Ġlove": 3013,
      "Ġsoil": 3014,
      "Ġreflect": 3015,
      "Ġbehind": 3016,
      "Ġpositive": 3017,
      "Ġlack": 3018,
      "ĠMany": 3019,
      "ĠVol": 3020,
      "ondon": 3021,
      "ĠRuss": 3022,
      "Ġteachers": 3023,
      "pe": 3024,
      "Ġsus": 3025,
      "ĠChe": 3026,
      "elling": 3027,
      "Ġlimited": 3028,
      "Ġmusic": 3029,
      "ises": 3030,
      "Ġdy": 3031,
      "Ġquite": 3032,
      "Ġreceived": 3033,
      "ufact": 3034,
      "Ġord": 3035,
      "Ġlost": 3036,
      "Ġsociety": 3037,
      "Ġcompared": 3038,
      "Ġimplement": 3039,
      "Ġskills": 3040,
      "Ġprimary": 3041,
      "ĠAssoci": 3042,
      "ĠChar": 3043,
      "isions": 3044,
      "Ġshare": 3045,
      "ologies": 3046,
      "ĠIsrael": 3047,
      "ĠAugust": 3048,
      "yond": 3049,
      "Ġbeginning": 3050,
      "Ġbacter": 3051,
      "Ġste": 3052,
      "Ġdecl": 3053,
      "Ġlarger": 3054,
      "Ġnews": 3055,
      "Ġdescribed": 3056,
      "Ġfamilies": 3057,
      "60": 3058,
      "Ġec": 3059,
      "Ġprec": 3060,
      "Ġinstit": 3061,
      "Ġreading": 3062,
      "Ġappropri": 3063,
      "ĠJanuary": 3064,
      "AN": 3065,
      "Ġjo": 3066,
      "Ġsolar": 3067,
      "Ġgrowing": 3068,
      "Ġdetermine": 3069,
      "xic": 3070,
      "ica": 3071,
      "Ġhealthy": 3072,
      "Ġforest": 3073,
      "And": 3074,
      "Ġmach": 3075,
      "rates": 3076,
      "wise": 3077,
      "inical": 3078,
      "Ġbrought": 3079,
      "Ġencoura": 3080,
      "ĠMost": 3081,
      "Ġdeal": 3082,
      "Ġunc": 3083,
      "ĠHistory": 3084,
      "lied": 3085,
      "edia": 3086,
      "Ġstreng": 3087,
      "Ġpack": 3088,
      "omet": 3089,
      "irm": 3090,
      "term": 3091,
      "used": 3092,
      "Ġresponse": 3093,
      "cohol": 3094,
      "Ġprint": 3095,
      "Ġdirectly": 3096,
      "Ġdraw": 3097,
      "Ġ=": 3098,
      "lection": 3099,
      "Ġcontains": 3100,
      "Ġpregn": 3101,
      "Ġtakes": 3102,
      "Ġbab": 3103,
      "arr": 3104,
      "Ġperformance": 3105,
      "Ġmicro": 3106,
      "Ġwarm": 3107,
      "Ġmid": 3108,
      "Ġselect": 3109,
      "Ġdoing": 3110,
      "ĠEuropean": 3111,
      "Ġmolec": 3112,
      "ĠVir": 3113,
      "Ġimpl": 3114,
      "Ġdamage": 3115,
      "IT": 3116,
      "isl": 3117,
      "Ġfuel": 3118,
      "Ġdiseases": 3119,
      "Ġprotein": 3120,
      "Ġfav": 3121,
      "Ġhimself": 3122,
      "ĠSociety": 3123,
      "Ġhor": 3124,
      "ĠSeptember": 3125,
      "24": 3126,
      "elt": 3127,
      "Ġfram": 3128,
      "ension": 3129,
      "Ġcover": 3130,
      "ĠLaw": 3131,
      "Ġideas": 3132,
      "Ġidentify": 3133,
      "Ġ,": 3134,
      "Ġtrade": 3135,
      "Ġapplication": 3136,
      "gar": 3137,
      "itte": 3138,
      "uries": 3139,
      "Ġseason": 3140,
      "Ġwood": 3141,
      "ription": 3142,
      "Ġshall": 3143,
      "Ġclean": 3144,
      "ĠSch": 3145,
      "ĠMc": 3146,
      "ĠPol": 3147,
      "Ġ2006": 3148,
      "gypt": 3149,
      "Ġmonitor": 3150,
      "ĠDecember": 3151,
      "Ġtiss": 3152,
      "inate": 3153,
      "Ġstarted": 3154,
      "Ġlegal": 3155,
      "He": 3156,
      "yle": 3157,
      "iles": 3158,
      "Ġinside": 3159,
      "PA": 3160,
      "oor": 3161,
      "Ġadop": 3162,
      "Ġmagn": 3163,
      "Ġsupply": 3164,
      "icated": 3165,
      "Ġ2005": 3166,
      "Ġvirus": 3167,
      "roy": 3168,
      "Ġprivate": 3169,
      "Ġsil": 3170,
      "Ġsound": 3171,
      "Ġhyd": 3172,
      "Ġproced": 3173,
      "Ġsummer": 3174,
      "ground": 3175,
      "Ġcust": 3176,
      "ĠCoun": 3177,
      "Ġ2013": 3178,
      "Ġpatient": 3179,
      "Ġlooking": 3180,
      "ĠGerman": 3181,
      "craft": 3182,
      "Ġden": 3183,
      "Ġeat": 3184,
      "ĠSm": 3185,
      "Ġformer": 3186,
      "osing": 3187,
      "edom": 3188,
      "ceed": 3189,
      "Ġforces": 3190,
      "illed": 3191,
      "Ġhyp": 3192,
      "Ġtransm": 3193,
      "Ġmemory": 3194,
      "Ġtree": 3195,
      "Ġreve": 3196,
      "ems": 3197,
      "Ġ21": 3198,
      "Ġevolution": 3199,
      "Ġtransport": 3200,
      "Ġrout": 3201,
      "Ġtarget": 3202,
      "rs": 3203,
      "Ġacid": 3204,
      "Ġdrink": 3205,
      "Ġborn": 3206,
      "Ġsequ": 3207,
      "Ġsevere": 3208,
      "ĠUN": 3209,
      "Ġdoesn": 3210,
      "Ġbenefits": 3211,
      "Ġvill": 3212,
      "hetic": 3213,
      "ĠPark": 3214,
      "ellow": 3215,
      "Ġlargest": 3216,
      "Ġgetting": 3217,
      "ĠIndia": 3218,
      "Ġeasy": 3219,
      "ari": 3220,
      "Ġspeed": 3221,
      "Ġsites": 3222,
      "ĠGl": 3223,
      "Ġgoal": 3224,
      "ĠDavid": 3225,
      "aid": 3226,
      "Ġinn": 3227,
      "ĠSee": 3228,
      "Ġsoon": 3229,
      "Ġaud": 3230,
      "Ġsleep": 3231,
      "Ġexcept": 3232,
      "ĠRec": 3233,
      "ĠNe": 3234,
      "Ġcorrect": 3235,
      "ĠOther": 3236,
      "Ġproperty": 3237,
      "One": 3238,
      "oke": 3239,
      "Ġ2000": 3240,
      "Ġcenter": 3241,
      "Ġice": 3242,
      "Ġkids": 3243,
      "Ġadminist": 3244,
      "Ġmanufact": 3245,
      "IC": 3246,
      "set": 3247,
      "ĠFeb": 3248,
      "ĠLondon": 3249,
      "Ġfru": 3250,
      "Ġder": 3251,
      "Ġeight": 3252,
      "ĠNovember": 3253,
      "Ġdispl": 3254,
      "ĠAlthough": 3255,
      "ibrary": 3256,
      "lier": 3257,
      "Ġcoast": 3258,
      "Ġremain": 3259,
      "Ġleading": 3260,
      "ider": 3261,
      "odies": 3262,
      "Ġcompon": 3263,
      "Ġagree": 3264,
      "Ġcompanies": 3265,
      "ĠServ": 3266,
      "Ġ23": 3267,
      "Ġefforts": 3268,
      "Ġbase": 3269,
      "Ġep": 3270,
      "ĠEgypt": 3271,
      "Ġemot": 3272,
      "Ġgame": 3273,
      "Ġdead": 3274,
      "ĠJournal": 3275,
      "ĠInc": 3276,
      "AS": 3277,
      "IV": 3278,
      "Ġsal": 3279,
      "ĠAng": 3280,
      "40": 3281,
      "uous": 3282,
      "uments": 3283,
      "ects": 3284,
      "aces": 3285,
      "Ġatmosp": 3286,
      "Ġminutes": 3287,
      "Ġprotection": 3288,
      "70": 3289,
      "Ġcard": 3290,
      "23": 3291,
      "Ġbal": 3292,
      "ĠTw": 3293,
      "Ġgot": 3294,
      "Ġbasis": 3295,
      "ĠCanada": 3296,
      "Ġpp": 3297,
      "alled": 3298,
      "Ġeval": 3299,
      "At": 3300,
      "Ġtend": 3301,
      "room": 3302,
      "asons": 3303,
      "ĠReg": 3304,
      "Ġpoints": 3305,
      "den": 3306,
      "Ġbit": 3307,
      "Ġarri": 3308,
      "Ġrecently": 3309,
      "Ġwrite": 3310,
      "ĠInter": 3311,
      "ĠAmericans": 3312,
      "abetes": 3313,
      "26": 3314,
      "rogen": 3315,
      "oma": 3316,
      "Ġdark": 3317,
      "rance": 3318,
      "Ġbillion": 3319,
      "sec": 3320,
      "Ġsecurity": 3321,
      "inct": 3322,
      "anks": 3323,
      "Ġuser": 3324,
      "29": 3325,
      "iques": 3326,
      "Ġdemand": 3327,
      "Ġprior": 3328,
      "rote": 3329,
      "Ġrare": 3330,
      "ties": 3331,
      "Ġi": 3332,
      "oles": 3333,
      "Ġcarry": 3334,
      "nown": 3335,
      "Ġdang": 3336,
      "enth": 3337,
      "Ġstra": 3338,
      "Ġquickly": 3339,
      "ls": 3340,
      "Ġsold": 3341,
      "Ġcool": 3342,
      "Ġones": 3343,
      "ĠOb": 3344,
      "Ġbank": 3345,
      "Ġvict": 3346,
      "ĠDo": 3347,
      "Ġdifference": 3348,
      "Ġextra": 3349,
      "Ġancient": 3350,
      "ĠDNA": 3351,
      "Ġhands": 3352,
      "ridge": 3353,
      "Ġcitizens": 3354,
      "atur": 3355,
      "ico": 3356,
      "rag": 3357,
      "izations": 3358,
      "Ġlocated": 3359,
      "Ġelse": 3360,
      "ĠTechn": 3361,
      "Ġnegative": 3362,
      "ittee": 3363,
      "Ġcou": 3364,
      "Ġcode": 3365,
      "Ġdied": 3366,
      "Ġlength": 3367,
      "itting": 3368,
      "Ġbirds": 3369,
      "Ġanswer": 3370,
      "Ġtraditional": 3371,
      "Ġdaily": 3372,
      "Ġlines": 3373,
      "Ġobjects": 3374,
      "Ġeth": 3375,
      "hens": 3376,
      "water": 3377,
      "Ġlif": 3378,
      "Ġdepend": 3379,
      "Ġtold": 3380,
      "Ġharm": 3381,
      "ĠMon": 3382,
      "Ġgenes": 3383,
      "Ġbott": 3384,
      "leb": 3385,
      "Ġdecre": 3386,
      "Ġprogress": 3387,
      "Ġestablish": 3388,
      "Ġpen": 3389,
      "sect": 3390,
      "apter": 3391,
      "ologist": 3392,
      "Ġcolon": 3393,
      "Ġobt": 3394,
      "Ġcommunication": 3395,
      "Ġrequires": 3396,
      "Ġeasily": 3397,
      "iology": 3398,
      "Ġstress": 3399,
      "Ġwaste": 3400,
      "Ġgene": 3401,
      "ields": 3402,
      "gery": 3403,
      "Ġsexual": 3404,
      "Ġdrugs": 3405,
      "eks": 3406,
      "arian": 3407,
      "Ġnamed": 3408,
      "ĠCouncil": 3409,
      "bit": 3410,
      "oming": 3411,
      "ĠCity": 3412,
      "Ġvot": 3413,
      "By": 3414,
      "Ġhot": 3415,
      "odes": 3416,
      "Ġ60": 3417,
      "ĠSocial": 3418,
      "Ġspeak": 3419,
      "Ġten": 3420,
      "rest": 3421,
      "Ġfoot": 3422,
      "ĠCour": 3423,
      "ĠChurch": 3424,
      "Ġpresident": 3425,
      "Ġremains": 3426,
      "Ġallows": 3427,
      "ĠSystem": 3428,
      "cks": 3429,
      "Ġfight": 3430,
      "Ġfather": 3431,
      "Ġvideo": 3432,
      "ĠUs": 3433,
      "Ġimages": 3434,
      "Ġchalleng": 3435,
      "Ġbeyond": 3436,
      "ĠEm": 3437,
      "Ġrule": 3438,
      "Ġplanet": 3439,
      "Ġanti": 3440,
      "Ġasked": 3441,
      "Ġeye": 3442,
      "cop": 3443,
      "Ġmal": 3444,
      "Ġrapid": 3445,
      "ĠDevelop": 3446,
      "ospital": 3447,
      "Ġdevice": 3448,
      "ĠWilliam": 3449,
      "itch": 3450,
      "verse": 3451,
      "ĠNA": 3452,
      "Ġdecision": 3453,
      "ĠIslam": 3454,
      "ĠEngland": 3455,
      "Ġplaces": 3456,
      "Ġsustain": 3457,
      "oe": 3458,
      "vest": 3459,
      "Ġhar": 3460,
      "ĠEast": 3461,
      "ocr": 3462,
      "ĠJes": 3463,
      "airs": 3464,
      "Ġbad": 3465,
      "Ġmom": 3466,
      "ĠFirst": 3467,
      "Ġ195": 3468,
      "Ġsomeone": 3469,
      "Ġgradu": 3470,
      "ĠAfrica": 3471,
      "aly": 3472,
      "Ġeconomy": 3473,
      "Ġtools": 3474,
      "Ġreligious": 3475,
      "ĠEducation": 3476,
      "Ġmut": 3477,
      "Ġmultiple": 3478,
      "ĠCounty": 3479,
      "year": 3480,
      "Ġweb": 3481,
      "Ġunique": 3482,
      "Ġinvestig": 3483,
      "yth": 3484,
      "hel": 3485,
      "Ġcred": 3486,
      "ĠGreen": 3487,
      "astic": 3488,
      "ruary": 3489,
      "Ġnuclear": 3490,
      "RE": 3491,
      "ils": 3492,
      "ĠRed": 3493,
      "ĠGree": 3494,
      "Ġinfluence": 3495,
      "Ġ2004": 3496,
      "II": 3497,
      "Ġtit": 3498,
      "Ġcorn": 3499,
      "Ġbeg": 3500,
      "Ġund": 3501,
      "Ġalt": 3502,
      "ĠArt": 3503,
      "ĠEl": 3504,
      "Ġinfection": 3505,
      "Ġtransl": 3506,
      "Ġapplications": 3507,
      "Ġessential": 3508,
      "Ġdestroy": 3509,
      "27": 3510,
      "Ġaware": 3511,
      "iny": 3512,
      "enty": 3513,
      "aint": 3514,
      "Ġspirit": 3515,
      "Ġsurround": 3516,
      "So": 3517,
      "idents": 3518,
      "fficient": 3519,
      "ĠAssociation": 3520,
      "Ġoffer": 3521,
      "Ġexposure": 3522,
      "ancial": 3523,
      "DA": 3524,
      "book": 3525,
      "Ġtrib": 3526,
      "come": 3527,
      "Ġult": 3528,
      "Ġstru": 3529,
      "Ġoccurs": 3530,
      "ĠNot": 3531,
      "Ġadj": 3532,
      "Ġhighly": 3533,
      "ĠJews": 3534,
      "lin": 3535,
      "iency": 3536,
      "Ġcommerc": 3537,
      "Ġcopy": 3538,
      "Ġvitamin": 3539,
      "Ġappropriate": 3540,
      "iers": 3541,
      "wide": 3542,
      "Ġmission": 3543,
      "Ġaccur": 3544,
      "Ġcapac": 3545,
      "Ġcritical": 3546,
      "Ġachieve": 3547,
      "Ġwebsite": 3548,
      "mar": 3549,
      "Ġwa": 3550,
      "Ġ26": 3551,
      "Ġveget": 3552,
      "orks": 3553,
      "Ġnames": 3554,
      "Ġnothing": 3555,
      "Ġsaw": 3556,
      "Ġcurrently": 3557,
      "Ġaim": 3558,
      "Ġmiddle": 3559,
      "Ġagricult": 3560,
      "AL": 3561,
      "Ġdry": 3562,
      "Ġgave": 3563,
      "ĠEnvironment": 3564,
      "entially": 3565,
      "Ġang": 3566,
      "Ġcontribut": 3567,
      "ilosoph": 3568,
      "resh": 3569,
      "resp": 3570,
      "time": 3571,
      "Ġaspect": 3572,
      "ĠProgram": 3573,
      "Ġwrote": 3574,
      "Ġpeace": 3575,
      "Ġuseful": 3576,
      "ype": 3577,
      "ĠMuslim": 3578,
      "Ġhon": 3579,
      "Ġ190": 3580,
      "Ġrock": 3581,
      "Ġanything": 3582,
      "king": 3583,
      "Ġhy": 3584,
      "ander": 3585,
      "Ġformed": 3586,
      "Ġlocation": 3587,
      "Ġdevices": 3588,
      "Ġplaced": 3589,
      "ĠOctober": 3590,
      "ought": 3591,
      "ĠGeneral": 3592,
      "Ġresponsible": 3593,
      "Ġtherapy": 3594,
      "equ": 3595,
      "inated": 3596,
      "Ġdate": 3597,
      "amm": 3598,
      "Ġdiscovered": 3599,
      "ey": 3600,
      "âĢ¢": 3601,
      "Ġelements": 3602,
      "Pro": 3603,
      "hest": 3604,
      "ald": 3605,
      "Ġreach": 3606,
      "ĠAv": 3607,
      "ĠFrom": 3608,
      "Ġweeks": 3609,
      "Ġ193": 3610,
      "Ġsuccessful": 3611,
      "new": 3612,
      "ida": 3613,
      "ĠDay": 3614,
      "Ġprinc": 3615,
      "Ġhelps": 3616,
      "28": 3617,
      "iar": 3618,
      "imal": 3619,
      "ĠDis": 3620,
      "Ġrates": 3621,
      "ĠOf": 3622,
      "Ġexpected": 3623,
      "Ġfigure": 3624,
      "iat": 3625,
      "Ġwaters": 3626,
      "Ġgard": 3627,
      "These": 3628,
      "Ġperhaps": 3629,
      "Ġshowed": 3630,
      "Ġreports": 3631,
      "Ġcollection": 3632,
      "Ġsn": 3633,
      "oud": 3634,
      "ĠRoman": 3635,
      "Ġfoods": 3636,
      "Ġexercise": 3637,
      "rab": 3638,
      "Ġalone": 3639,
      "oday": 3640,
      "Ġwinter": 3641,
      "ximately": 3642,
      "Ġfollowed": 3643,
      "Ġstrateg": 3644,
      "Ġriver": 3645,
      "ingu": 3646,
      "ĠGreat": 3647,
      "iber": 3648,
      "Ġcold": 3649,
      "With": 3650,
      "su": 3651,
      "Ġwalk": 3652,
      "ĠAir": 3653,
      "ĠMex": 3654,
      "iverse": 3655,
      "ĠCommun": 3656,
      "Ġversion": 3657,
      "fect": 3658,
      "Ġson": 3659,
      "oring": 3660,
      "Ġmis": 3661,
      "Ġgives": 3662,
      "ĠSur": 3663,
      "ests": 3664,
      "ĠUnion": 3665,
      "Ġillust": 3666,
      "Ġensure": 3667,
      "ees": 3668,
      "lege": 3669,
      "rief": 3670,
      "Ġcontroll": 3671,
      "Ġexpand": 3672,
      "Ġmember": 3673,
      "can": 3674,
      "Ġfinal": 3675,
      "Ġearlier": 3676,
      "Ġpopulations": 3677,
      "Ġallowed": 3678,
      "Ġbenefit": 3679,
      "bl": 3680,
      "head": 3681,
      "omy": 3682,
      "Ġalcohol": 3683,
      "cious": 3684,
      "Ġeffort": 3685,
      "Ġphysic": 3686,
      "ford": 3687,
      "ĠCur": 3688,
      "Ġcosts": 3689,
      "vant": 3690,
      "ĠAre": 3691,
      "Ġcoming": 3692,
      "Ġtechniques": 3693,
      "ken": 3694,
      "Ġwoman": 3695,
      "Ġmiss": 3696,
      "ĠAccording": 3697,
      "ĠHouse": 3698,
      "Ġquant": 3699,
      "Ġsituation": 3700,
      "Ġadults": 3701,
      "cles": 3702,
      "Ġtum": 3703,
      "icate": 3704,
      "ĠMich": 3705,
      "Ġexact": 3706,
      "irection": 3707,
      "ĠArch": 3708,
      "Ġvalues": 3709,
      "Ġreceive": 3710,
      "Ġvirt": 3711,
      "Ġseparate": 3712,
      "Ġpurpose": 3713,
      "ĠPat": 3714,
      "Ġthinking": 3715,
      "EN": 3716,
      "ĠSince": 3717,
      "ipment": 3718,
      "ĠWeb": 3719,
      "aria": 3720,
      "ĠSim": 3721,
      "ĠSun": 3722,
      "ĠWater": 3723,
      "ĠInternet": 3724,
      "iece": 3725,
      "Ġaffected": 3726,
      "ĠSan": 3727,
      "ession": 3728,
      "Ġjournal": 3729,
      "Ġ2003": 3730,
      "Ġacqu": 3731,
      "Ġappears": 3732,
      "Ġfear": 3733,
      "ĠMor": 3734,
      "Ġdisorders": 3735,
      "Ġconstruction": 3736,
      "Ġwon": 3737,
      "Ġ22": 3738,
      "Ġ28": 3739,
      "Ġfeed": 3740,
      "ĠYour": 3741,
      "Ġtechnologies": 3742,
      "hemat": 3743,
      "Ġoccup": 3744,
      "Ġtrees": 3745,
      "____": 3746,
      "iot": 3747,
      "more": 3748,
      "ĠDuring": 3749,
      "Ġscreen": 3750,
      "ĠPhil": 3751,
      "Ġ:": 3752,
      "reet": 3753,
      "Ġusers": 3754,
      "Ġmention": 3755,
      "Ġ2001": 3756,
      "joy": 3757,
      "ĠProf": 3758,
      "Ġfeatures": 3759,
      "inese": 3760,
      "rane": 3761,
      "ĠConf": 3762,
      "Ġsem": 3763,
      "Ġfair": 3764,
      "Ġimportance": 3765,
      "Ġlegisl": 3766,
      "aced": 3767,
      "Ġprison": 3768,
      "Ġ186": 3769,
      "bur": 3770,
      "Ġtable": 3771,
      "ĠSw": 3772,
      "Ġimag": 3773,
      "Ġsmaller": 3774,
      "ĠCongress": 3775,
      "'ve": 3776,
      "Ġmodels": 3777,
      "Ġcompletely": 3778,
      "ĠFebruary": 3779,
      ".|": 3780,
      "ĠHigh": 3781,
      "Ġhistorical": 3782,
      "Ġceleb": 3783,
      "known": 3784,
      "Ġstandards": 3785,
      "Ġrules": 3786,
      "EC": 3787,
      "rig": 3788,
      "Ġsch": 3789,
      "idel": 3790,
      "Ġbecomes": 3791,
      "Ġcalc": 3792,
      "ĠGermany": 3793,
      ".;": 3794,
      "Un": 3795,
      "orge": 3796,
      "Ġpet": 3797,
      "semb": 3798,
      "Ġneigh": 3799,
      "Ġelectr": 3800,
      "Ġconstruct": 3801,
      "Ġeyes": 3802,
      "rees": 3803,
      "Ġtele": 3804,
      "ky": 3805,
      "atin": 3806,
      "itis": 3807,
      "Ġball": 3808,
      "Ġmax": 3809,
      "olar": 3810,
      "ĠCD": 3811,
      "Ġoffice": 3812,
      "Ġpersons": 3813,
      "78": 3814,
      "off": 3815,
      "Ġtoxic": 3816,
      "Ġhope": 3817,
      "ctors": 3818,
      "Ġupper": 3819,
      "ĠMod": 3820,
      "riage": 3821,
      "pped": 3822,
      "Ġexperim": 3823,
      "Ġfunctions": 3824,
      "ED": 3825,
      "ban": 3826,
      "ĠMuseum": 3827,
      "Ġadm": 3828,
      "Ġtesting": 3829,
      "Ġproviding": 3830,
      "Ġinteresting": 3831,
      "Ġdetermined": 3832,
      "Ġdiabetes": 3833,
      "aught": 3834,
      "Ġmaintain": 3835,
      "ĠJesus": 3836,
      "Ġstar": 3837,
      "Ġvacc": 3838,
      "Ġapplied": 3839,
      "Ġbreast": 3840,
      "Ġrecords": 3841,
      "Ġurl": 3842,
      "ĠVirgin": 3843,
      "ml": 3844,
      "ula": 3845,
      "Ġassign": 3846,
      "Ġbelieved": 3847,
      "aur": 3848,
      "lant": 3849,
      "aled": 3850,
      "Ġfast": 3851,
      "Ġleave": 3852,
      "Ġprin": 3853,
      "Ġlimit": 3854,
      "Ġexec": 3855,
      "izes": 3856,
      "Ġblock": 3857,
      "Ġdistance": 3858,
      "Ġmajority": 3859,
      "Ġtowards": 3860,
      "Ġdegree": 3861,
      "icip": 3862,
      "Ġseven": 3863,
      "Ġrespond": 3864,
      "ĠCommission": 3865,
      "Ġradio": 3866,
      "ĠViet": 3867,
      "Ġcultural": 3868,
      "Ġfinancial": 3869,
      "Ġreleased": 3870,
      "Ġiniti": 3871,
      "ĠTrans": 3872,
      "ĠFound": 3873,
      "ĠJames": 3874,
      "Ġ2002": 3875,
      "Ġpassed": 3876,
      "ĠMy": 3877,
      "ĠNow": 3878,
      "Ġweather": 3879,
      "Ġautom": 3880,
      "ĠSpec": 3881,
      "Ġadvant": 3882,
      "ĠCollege": 3883,
      "Ġolder": 3884,
      "ĠRepublic": 3885,
      "itz": 3886,
      "ste": 3887,
      "rupt": 3888,
      "Ġreduced": 3889,
      "Â°": 3890,
      "Ġpow": 3891,
      "Ġprocesses": 3892,
      "Ġorganization": 3893,
      "Ġequal": 3894,
      "Ġprojects": 3895,
      "Ġtrying": 3896,
      "oo": 3897,
      "Ġworked": 3898,
      "Ġdefined": 3899,
      "Ġanaly": 3900,
      "Ġstatus": 3901,
      "Ġthousands": 3902,
      "90": 3903,
      "ocol": 3904,
      "Ġtrad": 3905,
      "OS": 3906,
      "ha": 3907,
      "Ġmental": 3908,
      "Ġhous": 3909,
      "Ġstay": 3910,
      "ĠBecause": 3911,
      "Ġarmy": 3912,
      "Ġteaching": 3913,
      "ĠKore": 3914,
      "Ġcoord": 3915,
      "unte": 3916,
      "back": 3917,
      "Ġcra": 3918,
      "Ġbeaut": 3919,
      "ĠThus": 3920,
      "ĠGovernment": 3921,
      "Americ": 3922,
      "rew": 3923,
      "Ġcrop": 3924,
      "Ġmel": 3925,
      "Ġdivid": 3926,
      "Ġreasons": 3927,
      "amer": 3928,
      "udd": 3929,
      "ĠNet": 3930,
      "Ġbelief": 3931,
      "Ġsymb": 3932,
      "Ġdrive": 3933,
      "ĠCourt": 3934,
      "Some": 3935,
      "itable": 3936,
      "Ġbodies": 3937,
      "asion": 3938,
      "rome": 3939,
      "ocks": 3940,
      "phas": 3941,
      "Ġidentified": 3942,
      "aign": 3943,
      "Ġsect": 3944,
      "Ġlat": 3945,
      "ĠWestern": 3946,
      "wards": 3947,
      "co": 3948,
      "ĠCom": 3949,
      "Ġconsequ": 3950,
      "ĠMal": 3951,
      "ĠRef": 3952,
      "ĠEven": 3953,
      "Ġ27": 3954,
      "Ġcompar": 3955,
      "abilities": 3956,
      "Ġves": 3957,
      "ĠChinese": 3958,
      "Ġfully": 3959,
      "men": 3960,
      "Ġmig": 3961,
      "Ġgoes": 3962,
      "lick": 3963,
      "Ġdidn": 3964,
      "Ġcommercial": 3965,
      "Ġstream": 3966,
      "ĠUse": 3967,
      "Ġmedicine": 3968,
      "Ġreference": 3969,
      "Ġchanged": 3970,
      "Ġveh": 3971,
      "load": 3972,
      "Ġbacteria": 3973,
      "Ġbound": 3974,
      "Ġeverything": 3975,
      "Ġpractices": 3976,
      "Ġcustom": 3977,
      "Ex": 3978,
      "HE": 3979,
      "orage": 3980,
      "ĠTex": 3981,
      "Ġadapt": 3982,
      "eech": 3983,
      "Ġtrial": 3984,
      "Ġrunning": 3985,
      "33": 3986,
      "rations": 3987,
      "encies": 3988,
      "Ġtrack": 3989,
      "Ġregions": 3990,
      "Ġexpect": 3991,
      "ĠProt": 3992,
      "ixed": 3993,
      "ĠRev": 3994,
      "force": 3995,
      "Ġexisting": 3996,
      "rition": 3997,
      "ĠHuman": 3998,
      "Ġfindings": 3999,
      "Ġconflic": 4000,
      "ĠMedicine": 4001,
      "Ġturned": 4002,
      "ciples": 4003,
      "Ġequipment": 4004,
      "Ġforeign": 4005,
      "Ġsteps": 4006,
      "Ġpredict": 4007,
      "mat": 4008,
      "Ġaid": 4009,
      "ara": 4010,
      "Ġassist": 4011,
      "Ġcommonly": 4012,
      "Ġmoving": 4013,
      "Ġteacher": 4014,
      "ĠNASA": 4015,
      "Ġpan": 4016,
      "ĠHere": 4017,
      "Ġlayer": 4018,
      "ios": 4019,
      "Ġocean": 4020,
      "oration": 4021,
      "Ġphen": 4022,
      "Ġdirection": 4023,
      "Ġstaff": 4024,
      "They": 4025,
      "Ġrepe": 4026,
      "cial": 4027,
      "oted": 4028,
      "ĠSer": 4029,
      "ulf": 4030,
      "erved": 4031,
      "Ġrob": 4032,
      "Ġfreedom": 4033,
      "ĠPaul": 4034,
      "Ġenjoy": 4035,
      "ords": 4036,
      "Ġstrength": 4037,
      "ria": 4038,
      "Ġrise": 4039,
      "Ġparty": 4040,
      "Ġinsp": 4041,
      "ographic": 4042,
      "Ġgrant": 4043,
      "Ph": 4044,
      "Ġspring": 4045,
      "Ġroom": 4046,
      "Ġexpress": 4047,
      "Ġ...": 4048,
      "enge": 4049,
      "Ġyouth": 4050,
      "que": 4051,
      "Ġpoly": 4052,
      "Ġtransfer": 4053,
      "Ġchoice": 4054,
      "Ġeventually": 4055,
      "Ġfriends": 4056,
      "eared": 4057,
      "aling": 4058,
      "Ġlic": 4059,
      "Ġlived": 4060,
      "Ġwhom": 4061,
      "Ġdistribution": 4062,
      "Ġdoub": 4063,
      "Ġtissue": 4064,
      "iable": 4065,
      "ĠBra": 4066,
      "Ġenter": 4067,
      "Ġstructures": 4068,
      "ĠBlack": 4069,
      "Ġrelatively": 4070,
      "ĠAustralia": 4071,
      "AC": 4072,
      "pris": 4073,
      "ygen": 4074,
      "Ġnorm": 4075,
      "ĠHen": 4076,
      "Ġunivers": 4077,
      "Ġemp": 4078,
      "Ġfactor": 4079,
      "ĠPeople": 4080,
      "BN": 4081,
      "Ġbreat": 4082,
      "Ġmob": 4083,
      "ĠSam": 4084,
      "ĠMars": 4085,
      "ĠFl": 4086,
      "uff": 4087,
      "Ġcru": 4088,
      "Ġmer": 4089,
      "ĠMary": 4090,
      "ĠThen": 4091,
      "ĠTheir": 4092,
      "apers": 4093,
      "Ġrain": 4094,
      "Ġsurvey": 4095,
      "ĠAlso": 4096,
      "Ġorganizations": 4097,
      "porary": 4098,
      "Ġsuggests": 4099,
      "Ġelectricity": 4100,
      "rehens": 4101,
      "Ġ29": 4102,
      "Ġplans": 4103,
      "Ġroad": 4104,
      "Ġoffers": 4105,
      "Ġpolice": 4106,
      "Ġnumerous": 4107,
      "Ġfaith": 4108,
      "Ġalternative": 4109,
      "Ġcapacity": 4110,
      "Ġwid": 4111,
      "Ġwond": 4112,
      "ĠPublic": 4113,
      "ĠRob": 4114,
      "Ġdecades": 4115,
      "Ġpresence": 4116,
      "Ġexamples": 4117,
      "Ġinstru": 4118,
      "Ġsolution": 4119,
      "Ġapproximately": 4120,
      "ias": 4121,
      "Ġinsect": 4122,
      "rian": 4123,
      "Ġconservation": 4124,
      "Ġacadem": 4125,
      "Ġeveryone": 4126,
      "Ġrelease": 4127,
      "Ġestimated": 4128,
      "Ġrich": 4129,
      "Ġnoted": 4130,
      "Ġbaby": 4131,
      "AM": 4132,
      "ht": 4133,
      "Ġpric": 4134,
      "ĠMiss": 4135,
      "Ġtypically": 4136,
      "Ġpowerful": 4137,
      "Ġoperations": 4138,
      "Ar": 4139,
      "Ġconver": 4140,
      "ĠFlor": 4141,
      "Ġpicture": 4142,
      "35": 4143,
      "Ġcities": 4144,
      "itect": 4145,
      "ament": 4146,
      "Ġvia": 4147,
      "Ġenh": 4148,
      "Ġsurgery": 4149,
      "Ġmeasures": 4150,
      "Ġillness": 4151,
      "45": 4152,
      "Ġfoss": 4153,
      "Ġattract": 4154,
      "Ġobserved": 4155,
      "och": 4156,
      "Ġhom": 4157,
      "ĠMount": 4158,
      "Ġsigns": 4159,
      "iant": 4160,
      "rust": 4161,
      "za": 4162,
      "Ġcry": 4163,
      "Ġclinical": 4164,
      "198": 4165,
      "Ġincreases": 4166,
      "Ġtreated": 4167,
      "ĠChildren": 4168,
      "fort": 4169,
      "hors": 4170,
      "ÃŃ": 4171,
      "road": 4172,
      "ĠDirect": 4173,
      "ibly": 4174,
      "Ġindustrial": 4175,
      "Ġfemale": 4176,
      "ĠDevelopment": 4177,
      "isher": 4178,
      "Ġpiece": 4179,
      "Ġlung": 4180,
      "ĠMill": 4181,
      "ĠOff": 4182,
      "Ġeducational": 4183,
      "Ġimmediately": 4184,
      "Ġmo": 4185,
      "Ġconv": 4186,
      "Ġconstant": 4187,
      "Ġcreating": 4188,
      "ying": 4189,
      "ĠRead": 4190,
      "Ġslight": 4191,
      "Ġofficials": 4192,
      "respond": 4193,
      "ogen": 4194,
      "ĠJust": 4195,
      "Ġchemicals": 4196,
      "Ġopportunity": 4197,
      "Ġefficient": 4198,
      "Ġinterpret": 4199,
      "Is": 4200,
      "Ġscale": 4201,
      "ĠPlan": 4202,
      "ĠBritain": 4203,
      "ĠMet": 4204,
      "ĠPal": 4205,
      "ĠFrance": 4206,
      "Ġchance": 4207,
      "Ġcontrast": 4208,
      "Ġclearly": 4209,
      "cast": 4210,
      "Ġmoment": 4211,
      "ĠRo": 4212,
      "Ġcook": 4213,
      "Ġnorthern": 4214,
      "Ġtruth": 4215,
      "Ġhighest": 4216,
      "Ad": 4217,
      "zy": 4218,
      "Ġisn": 4219,
      "ĠMass": 4220,
      "ĠRel": 4221,
      "ĠRich": 4222,
      "Ġenem": 4223,
      "While": 4224,
      "Ġload": 4225,
      "Ġprofessional": 4226,
      "win": 4227,
      "Ġbran": 4228,
      "ifically": 4229,
      "Ġchronic": 4230,
      "ellig": 4231,
      "ensus": 4232,
      "clus": 4233,
      "Ġpurch": 4234,
      "Ġrecommend": 4235,
      "Ġfavor": 4236,
      "ET": 4237,
      "gress": 4238,
      "house": 4239,
      "name": 4240,
      "Ġtou": 4241,
      "Ġtro": 4242,
      "Ġcateg": 4243,
      "Ġhuge": 4244,
      "ortion": 4245,
      "After": 4246,
      "part": 4247,
      "Ġcand": 4248,
      "ĠAut": 4249,
      "icking": 4250,
      "Ġdifferences": 4251,
      "oyal": 4252,
      "related": 4253,
      "Ġindependent": 4254,
      "erior": 4255,
      "Ġsac": 4256,
      "orpor": 4257,
      "Ġfresh": 4258,
      "Ġforward": 4259,
      "ĠRober": 4260,
      "Ġrang": 4261,
      "Ġsynt": 4262,
      "Ġannual": 4263,
      "ault": 4264,
      "Ġswe": 4265,
      "ctic": 4266,
      "Ġlib": 4267,
      "Ġshape": 4268,
      "Ġweak": 4269,
      "Ġkid": 4270,
      "Ġqual": 4271,
      "ĠWhite": 4272,
      "Ġsed": 4273,
      "Ġactual": 4274,
      "Ġrot": 4275,
      "Ġinstance": 4276,
      "Ġbelong": 4277,
      "Ġconducted": 4278,
      "ĠTexas": 4279,
      "All": 4280,
      "band": 4281,
      "Ġ+": 4282,
      "Ġnor": 4283,
      "Ġgir": 4284,
      "iful": 4285,
      "Ġliterature": 4286,
      "'ll": 4287,
      "Ġign": 4288,
      "ĠEach": 4289,
      "ĠOur": 4290,
      "Ġblue": 4291,
      "Ġkilled": 4292,
      "Ġwatch": 4293,
      "ado": 4294,
      "Ġmeat": 4295,
      "ologists": 4296,
      "Ġactions": 4297,
      "Ġinstruct": 4298,
      "Ġboard": 4299,
      "Ġmotor": 4300,
      "Ġtub": 4301,
      "erate": 4302,
      "Ġpump": 4303,
      "Ġbone": 4304,
      "ĠPort": 4305,
      "ocal": 4306,
      "ĠLou": 4307,
      "Ġarr": 4308,
      "Ġreprodu": 4309,
      "Ġdisplay": 4310,
      "itors": 4311,
      "ĠTest": 4312,
      "Ġgold": 4313,
      "ota": 4314,
      "Ġstorage": 4315,
      "Ġsitu": 4316,
      "US": 4317,
      "gl": 4318,
      "Ġwear": 4319,
      "level": 4320,
      "iding": 4321,
      "acific": 4322,
      "Ġvent": 4323,
      "aste": 4324,
      "eces": 4325,
      "Ġnovel": 4326,
      "ĠNews": 4327,
      "Ġwidely": 4328,
      "cont": 4329,
      "isp": 4330,
      "ĠMag": 4331,
      "Ġlearned": 4332,
      "ĠMedical": 4333,
      "Ġevalu": 4334,
      "igure": 4335,
      "Ġexhib": 4336,
      "Ġprice": 4337,
      "ĠAsia": 4338,
      "Ġbox": 4339,
      "ĠCommon": 4340,
      "Ġmoved": 4341,
      "Ġchoose": 4342,
      "Ġpatterns": 4343,
      "eff": 4344,
      "ona": 4345,
      "Ġmap": 4346,
      "omas": 4347,
      "ett": 4348,
      "ĠMi": 4349,
      "ĠKen": 4350,
      "ribute": 4351,
      "Ġconnection": 4352,
      "orial": 4353,
      "ĠSen": 4354,
      "unction": 4355,
      "ously": 4356,
      "cipl": 4357,
      "Ġheavy": 4358,
      "atab": 4359,
      "Ġgiving": 4360,
      "Ġrul": 4361,
      "Ġopin": 4362,
      "Ġmeeting": 4363,
      "Ġopportunities": 4364,
      "Ġinnov": 4365,
      "Ġpul": 4366,
      "roc": 4367,
      "ola": 4368,
      "Ġhair": 4369,
      "Ġvote": 4370,
      "ĠLord": 4371,
      "Ġworth": 4372,
      "Ġemphas": 4373,
      "Ġminor": 4374,
      "spec": 4375,
      "unting": 4376,
      "Ġatmosphere": 4377,
      "From": 4378,
      "Ġpal": 4379,
      "Ġunit": 4380,
      "Ġphilosoph": 4381,
      "Ġ1999": 4382,
      "Ġproperties": 4383,
      "32": 4384,
      "Ġwest": 4385,
      "anish": 4386,
      "Ġjoint": 4387,
      "Ġcarried": 4388,
      "ĠVirginia": 4389,
      "ĠMart": 4390,
      "ĠInst": 4391,
      "Ġdisorder": 4392,
      "Ġintroduced": 4393,
      "Ġoxygen": 4394,
      "uz": 4395,
      "Ġtim": 4396,
      "Ġbra": 4397,
      "Ġeating": 4398,
      "essor": 4399,
      "ĠDes": 4400,
      "ĠUnder": 4401,
      "Ġchief": 4402,
      "ĠIts": 4403,
      "Ġremained": 4404,
      "ĠProject": 4405,
      "ĠSpace": 4406,
      "Ġpresented": 4407,
      "Ġfruit": 4408,
      "Ġstrugg": 4409,
      "Ġvessel": 4410,
      "iance": 4411,
      "char": 4412,
      "ĠMic": 4413,
      "Ġchurch": 4414,
      "Ġserver": 4415,
      "ĠIsland": 4416,
      "Ġfilm": 4417,
      "Ġremoved": 4418,
      "Ġmessage": 4419,
      "ĠAcadem": 4420,
      "ĠISBN": 4421,
      "ped": 4422,
      "Ġvary": 4423,
      "Ġpartners": 4424,
      "Ġdro": 4425,
      "Ġreb": 4426,
      "Ġstories": 4427,
      "Ġcontract": 4428,
      "Ġflood": 4429,
      "Ġserve": 4430,
      "Ġvisual": 4431,
      "ĠAlex": 4432,
      "Ġgeneration": 4433,
      "Ġcorrespond": 4434,
      "Ġdetails": 4435,
      "Ġemissions": 4436,
      "Ġcoal": 4437,
      "Ġdistinct": 4438,
      "Ġvision": 4439,
      "Ġinterested": 4440,
      "Ġprofessor": 4441,
      "Ġwrong": 4442,
      "Ġreaction": 4443,
      "38": 4444,
      "Ġlinks": 4445,
      "Ġstage": 4446,
      "Ġresource": 4447,
      "Ġ189": 4448,
      "Ġstatement": 4449,
      "Ġproposed": 4450,
      "Ġfriend": 4451,
      "Ġsouthern": 4452,
      "ndrome": 4453,
      "ĠCO": 4454,
      "ĠEv": 4455,
      "Ġquar": 4456,
      "iox": 4457,
      "Ġserved": 4458,
      "Ġcampaign": 4459,
      "with": 4460,
      "Ġdim": 4461,
      "Ġgod": 4462,
      "ĠDem": 4463,
      "key": 4464,
      "Ġrat": 4465,
      "Ġspect": 4466,
      "Ġassum": 4467,
      "Ġcombination": 4468,
      "ĠInformation": 4469,
      "ij": 4470,
      "Ġfields": 4471,
      "rog": 4472,
      "Ġunf": 4473,
      "Ġsyn": 4474,
      "Ġmuscle": 4475,
      "Ġbattle": 4476,
      "uses": 4477,
      "ĠFin": 4478,
      "Ġarticles": 4479,
      "Ġradiation": 4480,
      "ĠService": 4481,
      "bed": 4482,
      "do": 4483,
      "Ġpages": 4484,
      "ĠMil": 4485,
      "Ġalle": 4486,
      "Ġcontext": 4487,
      "Ġ80": 4488,
      "Ġsolid": 4489,
      "Ġreturned": 4490,
      "ĠValley": 4491,
      "ample": 4492,
      "Ġhearing": 4493,
      "Ġround": 4494,
      "Ġ185": 4495,
      "rant": 4496,
      "well": 4497,
      "Ġdoll": 4498,
      "ĠCivil": 4499,
      "ĠBay": 4500,
      "berg": 4501,
      "Ġexposed": 4502,
      "Ġfeature": 4503,
      "Ġinvolve": 4504,
      "ĠGeorge": 4505,
      "36": 4506,
      "See": 4507,
      "yro": 4508,
      "Ġesc": 4509,
      "Ġreached": 4510,
      "Ġnative": 4511,
      "raction": 4512,
      "amental": 4513,
      "Ġspeech": 4514,
      "Ġpret": 4515,
      "Ġinform": 4516,
      "Ġantib": 4517,
      "Ġletter": 4518,
      "Ġconclud": 4519,
      "New": 4520,
      "urt": 4521,
      "ĠLear": 4522,
      "ĠLife": 4523,
      "Ġoverall": 4524,
      "Ġexplain": 4525,
      "ĠPhys": 4526,
      "Ġbehavi": 4527,
      ".||": 4528,
      "ux": 4529,
      "that": 4530,
      "Ġperfect": 4531,
      "Ġanyone": 4532,
      "Ġexperiment": 4533,
      "Ġfert": 4534,
      "ĠCath": 4535,
      "esthetic": 4536,
      "Ġnote": 4537,
      "oviet": 4538,
      "Ġdecided": 4539,
      "Ġmemb": 4540,
      "Ġeggs": 4541,
      "tical": 4542,
      "Ġpi": 4543,
      "Ġhomes": 4544,
      "uted": 4545,
      "Ġship": 4546,
      "Ġrace": 4547,
      "Ġreferred": 4548,
      "Ġmale": 4549,
      "Ġisol": 4550,
      "ĠLa": 4551,
      "Ġpolicies": 4552,
      "Ġdu": 4553,
      "Ġstudied": 4554,
      "rence": 4555,
      "RI": 4556,
      "Ġsort": 4557,
      "Ġpip": 4558,
      "akers": 4559,
      "Ġexpression": 4560,
      "Ġkept": 4561,
      "Ġ1990": 4562,
      "Ġtemperatures": 4563,
      "Ġconnect": 4564,
      "American": 4565,
      "75": 4566,
      "ĠHIV": 4567,
      "Ġsugar": 4568,
      "ĠDec": 4569,
      "ĠFore": 4570,
      "Ġnotes": 4571,
      "Ġupd": 4572,
      "Ġplanning": 4573,
      "Ġfailure": 4574,
      "Ġfrequently": 4575,
      "Ġmonitoring": 4576,
      "west": 4577,
      "ystem": 4578,
      "Ġresistance": 4579,
      "Ġmeant": 4580,
      "Ġfamous": 4581,
      "Ġauthors": 4582,
      "clop": 4583,
      "gal": 4584,
      "Ġgain": 4585,
      "ĠLabor": 4586,
      "Ġleaves": 4587,
      "ĠEnergy": 4588,
      "Many": 4589,
      "arrow": 4590,
      "aped": 4591,
      "ounced": 4592,
      "Ġmathemat": 4593,
      "Ġoccurred": 4594,
      "Ġelim": 4595,
      "Ġconsumption": 4596,
      "ixt": 4597,
      "olved": 4598,
      "Ġforced": 4599,
      "umber": 4600,
      "ager": 4601,
      "Ġincome": 4602,
      "Ġapply": 4603,
      "Ġemail": 4604,
      "Ġsamples": 4605,
      "Ġsquare": 4606,
      "BC": 4607,
      "awn": 4608,
      "mit": 4609,
      "wood": 4610,
      "Ġsand": 4611,
      "erences": 4612,
      "ĠWild": 4613,
      "ĠGra": 4614,
      "Ġspent": 4615,
      "Ġdesp": 4616,
      "Ġperformed": 4617,
      "Ġtrend": 4618,
      "Ġproteins": 4619,
      "Ġreligion": 4620,
      "Ġcounter": 4621,
      "Ġextremely": 4622,
      "Ġmit": 4623,
      "iring": 4624,
      "ĠPacific": 4625,
      "Ġarm": 4626,
      "Ġsecret": 4627,
      "ĠWhy": 4628,
      "Ġdescribe": 4629,
      "Ġimmune": 4630,
      "ĠFranc": 4631,
      "ĠIran": 4632,
      "oper": 4633,
      "ĠBer": 4634,
      "ago": 4635,
      "Ġhelped": 4636,
      "ĠConstitution": 4637,
      "Ġoptions": 4638,
      "gra": 4639,
      "Ġfine": 4640,
      "Ġyourself": 4641,
      "That": 4642,
      "Ġterrit": 4643,
      "what": 4644,
      "ĠCharles": 4645,
      "Ġstrategies": 4646,
      "ĠMexico": 4647,
      "Sp": 4648,
      "ael": 4649,
      "ishes": 4650,
      "Ġplease": 4651,
      "Ġconstitution": 4652,
      "Ġhear": 4653,
      "ensity": 4654,
      "Ġdiscrim": 4655,
      "Ġclassroom": 4656,
      "Ġmachine": 4657,
      "Ġbond": 4658,
      "Ġeast": 4659,
      "ellect": 4660,
      "ĠWomen": 4661,
      "ĠRights": 4662,
      "Ġmilk": 4663,
      "ĠTechnology": 4664,
      "ĠEnvironmental": 4665,
      "Be": 4666,
      "ping": 4667,
      "atically": 4668,
      "Ġcast": 4669,
      "icial": 4670,
      "Ġliqu": 4671,
      "Ġbecoming": 4672,
      "Ġ35": 4673,
      "Ġinitial": 4674,
      "Ġprepared": 4675,
      "Ġsusp": 4676,
      "ĠArab": 4677,
      "othes": 4678,
      "Ġconvers": 4679,
      "romos": 4680,
      "Ġsave": 4681,
      "Ġbrother": 4682,
      "Ġarchitect": 4683,
      "kin": 4684,
      "rus": 4685,
      "uit": 4686,
      "Ġcere": 4687,
      "Ġwife": 4688,
      "isation": 4689,
      "ndom": 4690,
      "olute": 4691,
      "verty": 4692,
      "Ġmorning": 4693,
      "Ġbill": 4694,
      "olid": 4695,
      "raw": 4696,
      "Ġrandom": 4697,
      "Ġpoverty": 4698,
      "Ġscen": 4699,
      "Ġresulting": 4700,
      "Ġelement": 4701,
      "Ġfinally": 4702,
      "mark": 4703,
      "itness": 4704,
      "Ġmere": 4705,
      "Ġmouth": 4706,
      "ĠFederal": 4707,
      "ĠKe": 4708,
      "ĠProv": 4709,
      "Ġregarding": 4710,
      "Ġsymbol": 4711,
      "Ġstore": 4712,
      "ĠOver": 4713,
      "Ġremember": 4714,
      "Ġgets": 4715,
      "Ġexpert": 4716,
      "Ġmarine": 4717,
      "Ġlinked": 4718,
      "Ġchallenges": 4719,
      "crib": 4720,
      "Ġple": 4721,
      "Ġfif": 4722,
      "icon": 4723,
      "Ġreality": 4724,
      "Ġdetect": 4725,
      "Ġinvolves": 4726,
      "Ġhappen": 4727,
      "Ġviolence": 4728,
      "64": 4729,
      "met": 4730,
      "yn": 4731,
      "ĠMD": 4732,
      "Ġheard": 4733,
      "Ġteach": 4734,
      "Ġ70": 4735,
      "Ġcausing": 4736,
      "Ġsaying": 4737,
      "Ġprinciples": 4738,
      "CC": 4739,
      "Res": 4740,
      "point": 4741,
      "ero": 4742,
      "Ġcris": 4743,
      "omic": 4744,
      "Ġstim": 4745,
      "Ġcounty": 4746,
      "Ġfinding": 4747,
      "Ġwanted": 4748,
      "Ġpreviously": 4749,
      "ĠFoundation": 4750,
      "Ġphenomen": 4751,
      "zing": 4752,
      "Ġthick": 4753,
      "ĠCamb": 4754,
      "ĠJer": 4755,
      "orms": 4756,
      "Ġshowing": 4757,
      "Ġ90": 4758,
      "ĠAtlant": 4759,
      "Ġletters": 4760,
      "Ġbottom": 4761,
      "oice": 4762,
      "Ġnations": 4763,
      "utive": 4764,
      "ĠPM": 4765,
      "Ġneu": 4766,
      "Ġcontaining": 4767,
      "Ġcomprehens": 4768,
      "Ġclust": 4769,
      "Ġgraph": 4770,
      "Ġelection": 4771,
      "Ġmotion": 4772,
      "Ġdiscussion": 4773,
      "ĠCast": 4774,
      "Ġshut": 4775,
      "Ġprefer": 4776,
      "Ġcreation": 4777,
      "ĠReview": 4778,
      "Ġadvice": 4779,
      "Ġstarting": 4780,
      "ĠCentral": 4781,
      "Ġcollabor": 4782,
      "Ġvictim": 4783,
      "Ġlatter": 4784,
      "istan": 4785,
      "umn": 4786,
      "which": 4787,
      "Ġsignificantly": 4788,
      "iling": 4789,
      "Ġnav": 4790,
      "Ġintended": 4791,
      "ĠForce": 4792,
      "Ġleader": 4793,
      "ributed": 4794,
      "Ġdiagnosis": 4795,
      "ĠGreek": 4796,
      "ares": 4797,
      "Ġdram": 4798,
      "ĠSoviet": 4799,
      "Ġappoint": 4800,
      "aughter": 4801,
      "Ġchallenge": 4802,
      "Ġdigital": 4803,
      "ĠLouis": 4804,
      "Ġsalt": 4805,
      "ingly": 4806,
      "Ġded": 4807,
      "ĠSl": 4808,
      "ĠDon": 4809,
      "ception": 4810,
      "Ġjustice": 4811,
      "Ġmetal": 4812,
      "Ġcharge": 4813,
      "Ġgarden": 4814,
      "uild": 4815,
      "iled": 4816,
      "ĠMiddle": 4817,
      "ĠUK": 4818,
      "Ġbiological": 4819,
      "Ġrecorded": 4820,
      "pective": 4821,
      "Ġreplace": 4822,
      "lar": 4823,
      "Ġsav": 4824,
      "Ġgal": 4825,
      "ching": 4826,
      "ĠSub": 4827,
      "Ġexcess": 4828,
      "Ġexperts": 4829,
      "Ġgrand": 4830,
      "Ġabsor": 4831,
      "ĠFlorida": 4832,
      "cest": 4833,
      "pre": 4834,
      "ĠLake": 4835,
      "Ġunits": 4836,
      "Ġextent": 4837,
      "Ġbackground": 4838,
      "Ġdirector": 4839,
      "Ġchanging": 4840,
      "ĠCancer": 4841,
      "Ġacademic": 4842,
      "cers": 4843,
      "rum": 4844,
      "uing": 4845,
      "Ġburn": 4846,
      "ilit": 4847,
      "ĠLatin": 4848,
      "ibl": 4849,
      "rick": 4850,
      "Ġmostly": 4851,
      "Ġlargely": 4852,
      "Ġamounts": 4853,
      "Ġdrinking": 4854,
      "ĠRobert": 4855,
      "Most": 4856,
      "inations": 4857,
      "Ġbow": 4858,
      "add": 4859,
      "ĠNatural": 4860,
      "Ġcontem": 4861,
      "Ġju": 4862,
      "Ġauthorities": 4863,
      "ĠCarol": 4864,
      "Ġbalance": 4865,
      "Ab": 4866,
      "Ġmamm": 4867,
      "ĠMem": 4868,
      "ructure": 4869,
      "Ġmaximum": 4870,
      "Ġpaid": 4871,
      "icit": 4872,
      "Ġdrop": 4873,
      "astern": 4874,
      "Ġnewsp": 4875,
      "Ġattitude": 4876,
      "ĠIndians": 4877,
      "ĠQue": 4878,
      "Ġcharacteristics": 4879,
      "Ġsubstant": 4880,
      "Ġrecommended": 4881,
      "Ġhabitat": 4882,
      "RO": 4883,
      "bal": 4884,
      "works": 4885,
      "Ġinternal": 4886,
      "Ġstars": 4887,
      "Ġspot": 4888,
      "ĠIII": 4889,
      "Ġdegrees": 4890,
      "Ġinstitutions": 4891,
      "Ġadvantage": 4892,
      "Ġtrou": 4893,
      "roph": 4894,
      "illing": 4895,
      "ĠWork": 4896,
      "Ġtechnique": 4897,
      "Ġcompleted": 4898,
      "Ġcombined": 4899,
      "Although": 4900,
      "Ġdefinition": 4901,
      "Cl": 4902,
      "comm": 4903,
      "Ġrenew": 4904,
      "uration": 4905,
      "urance": 4906,
      "ĠPenn": 4907,
      "ishing": 4908,
      "Ġauthority": 4909,
      "Ġcircum": 4910,
      "Ġcycle": 4911,
      "lements": 4912,
      "ented": 4913,
      "Ġgar": 4914,
      "ĠMat": 4915,
      "Ġitems": 4916,
      "ĠJud": 4917,
      "elled": 4918,
      "ossible": 4919,
      "Ġ1998": 4920,
      "Ġguide": 4921,
      "Ġoperation": 4922,
      "Ġexperienced": 4923,
      "Sh": 4924,
      "mal": 4925,
      "tes": 4926,
      "Ġban": 4927,
      "Ġstyle": 4928,
      "Ġobvious": 4929,
      "Ġschem": 4930,
      "Ġ45": 4931,
      "Ġdiscover": 4932,
      "Ġbuildings": 4933,
      "Ġemergency": 4934,
      "Ġcomponents": 4935,
      "idelines": 4936,
      "SI": 4937,
      "ĠMac": 4938,
      "Ġ31": 4939,
      "Ġready": 4940,
      "Ġcontinues": 4941,
      "ĠCommittee": 4942,
      "39": 4943,
      "No": 4944,
      "ST": 4945,
      "Ġtask": 4946,
      "change": 4947,
      "igen": 4948,
      "Ġonto": 4949,
      "ams": 4950,
      "ĠBible": 4951,
      "Ġmanner": 4952,
      "Ġdiscovery": 4953,
      "Ġfiles": 4954,
      "ĠOffice": 4955,
      "49": 4956,
      "inf": 4957,
      "Ġcovered": 4958,
      "Ġwestern": 4959,
      "Ġhospital": 4960,
      "ĠTur": 4961,
      "ĠUp": 4962,
      "Ġappeared": 4963,
      "Ġgoals": 4964,
      "Ġdepos": 4965,
      "Ġrisks": 4966,
      "Ġoperating": 4967,
      "Ġsuggested": 4968,
      "Ġdocuments": 4969,
      "Ġpregnancy": 4970,
      "Ġaspects": 4971,
      "Ġdivided": 4972,
      "atabase": 4973,
      "ca": 4974,
      "Ġiron": 4975,
      "Ġsen": 4976,
      "alle": 4977,
      "ĠToday": 4978,
      "ĠColumb": 4979,
      "Ġaircraft": 4980,
      "ĠOrgan": 4981,
      "Ġfundamental": 4982,
      "Ġsnow": 4983,
      "Ġstem": 4984,
      "ogue": 4985,
      "Ġperman": 4986,
      "ĠSte": 4987,
      "Ġgovernments": 4988,
      "Ġsupported": 4989,
      "lamm": 4990,
      "Ġclaims": 4991,
      "76": 4992,
      "Other": 4993,
      "Ġinh": 4994,
      "ulating": 4995,
      "ĠElect": 4996,
      "ĠFood": 4997,
      "Ġkil": 4998,
      "Ġdiss": 4999,
      "Ġcenturies": 5000,
      "Ġtested": 5001,
      "Ġeasier": 5002,
      "Ġprimarily": 5003,
      "ĠJapanese": 5004,
      "Ġfarmers": 5005,
      "ĠTwo": 5006,
      "Ġprices": 5007,
      "Ġpun": 5008,
      "Ġconvent": 5009,
      "asses": 5010,
      "ĠArmy": 5011,
      "Ġorganisms": 5012,
      "Ġconnected": 5013,
      "Ġrequirements": 5014,
      "board": 5015,
      "vis": 5016,
      "Ġtour": 5017,
      "Ġfib": 5018,
      "Ġhour": 5019,
      "ĠAN": 5020,
      "ĠDef": 5021,
      "Ġincorpor": 5022,
      "Ġoutput": 5023,
      "Ġconsult": 5024,
      "Ġdecisions": 5025,
      "Ġindicate": 5026,
      "100": 5027,
      "LE": 5028,
      "Ġther": 5029,
      "Ġhop": 5030,
      "Ġremove": 5031,
      "According": 5032,
      "ini": 5033,
      "ĠMr": 5034,
      "place": 5035,
      "Ġconsists": 5036,
      "Ġhousehold": 5037,
      "ĠHistor": 5038,
      "Ġconcepts": 5039,
      "Ġtroops": 5040,
      "Ġpieces": 5041,
      "tle": 5042,
      "Ġgames": 5043,
      "ĠGal": 5044,
      "Ġparticipants": 5045,
      "Ġsample": 5046,
      "ĠRussian": 5047,
      "care": 5048,
      "itage": 5049,
      "ĠDist": 5050,
      "Ġclos": 5051,
      "Ġoffered": 5052,
      "Ġprocessing": 5053,
      "rolog": 5054,
      "Ġimproved": 5055,
      "ortunately": 5056,
      "Now": 5057,
      "Ġcore": 5058,
      "Ġpil": 5059,
      "ĠEconom": 5060,
      "Ġraised": 5061,
      "Ġinjury": 5062,
      "Ġbegins": 5063,
      "37": 5064,
      "nel": 5065,
      "rat": 5066,
      "rich": 5067,
      "Ġexcell": 5068,
      "Ġsufficient": 5069,
      "ĠGroup": 5070,
      "ĠOld": 5071,
      "Ġclim": 5072,
      "Ġdistingu": 5073,
      "ĠScient": 5074,
      "Ġtitle": 5075,
      "Ġhus": 5076,
      "Ġisland": 5077,
      "ĠBel": 5078,
      "ĠNav": 5079,
      "ears": 5080,
      "Ġintellect": 5081,
      "Ġapparent": 5082,
      "Ġinfections": 5083,
      "iatric": 5084,
      "ĠHenry": 5085,
      "Ã¶": 5086,
      "Ġtun": 5087,
      "Ġfal": 5088,
      "Ġdial": 5089,
      "Ġexplore": 5090,
      "Ġfigures": 5091,
      "Ġsin": 5092,
      "Ġsong": 5093,
      "ita": 5094,
      "Ġinput": 5095,
      "ĠSal": 5096,
      "ĠBro": 5097,
      "umin": 5098,
      "resents": 5099,
      "Ġvast": 5100,
      "Ġtrig": 5101,
      "Ġinterf": 5102,
      "Ġgreatest": 5103,
      "Ġhappens": 5104,
      "Ġfailed": 5105,
      "Ġrecognized": 5106,
      "Ġhundreds": 5107,
      "Ġexactly": 5108,
      "cript": 5109,
      "Ġbright": 5110,
      "ĠSum": 5111,
      "Ġchart": 5112,
      "enses": 5113,
      "obe": 5114,
      "iveness": 5115,
      "Ġrelationships": 5116,
      "Ġprocedure": 5117,
      "Ġconflict": 5118,
      "ĠAcademy": 5119,
      "AP": 5120,
      "vision": 5121,
      "Ġknew": 5122,
      "Ġdistrict": 5123,
      "Ġidentity": 5124,
      "Ġpromote": 5125,
      "Ġexistence": 5126,
      "down": 5127,
      "ih": 5128,
      "nic": 5129,
      "ses": 5130,
      "oral": 5131,
      "ulum": 5132,
      "osen": 5133,
      "Ġotherwise": 5134,
      "cyclop": 5135,
      "Ġ188": 5136,
      "Ġeffectively": 5137,
      "Ġexplan": 5138,
      "Ġreducing": 5139,
      "espite": 5140,
      "Ġvolume": 5141,
      "Ġaccepted": 5142,
      "48": 5143,
      "More": 5144,
      "pat": 5145,
      "Ġpick": 5146,
      "Ġband": 5147,
      "Ġnit": 5148,
      "ĠSom": 5149,
      "ague": 5150,
      "Ġsyndrome": 5151,
      "Ġallowing": 5152,
      "Ġfacilities": 5153,
      "ĠMiG": 5154,
      "ya": 5155,
      "Ġsend": 5156,
      "Ġfle": 5157,
      "Ġstation": 5158,
      "Ġnotice": 5159,
      "clusion": 5160,
      "Ġconcerned": 5161,
      "Ġportion": 5162,
      "Ġstraight": 5163,
      "Ġdestroyed": 5164,
      "Ġslightly": 5165,
      "reed": 5166,
      "ancing": 5167,
      "osite": 5168,
      "Ġtwenty": 5169,
      "Ġspecifically": 5170,
      "ieties": 5171,
      "Ġmarriage": 5172,
      "Ġinterests": 5173,
      "ifying": 5174,
      "Ġdangerous": 5175,
      "Ġagricultural": 5176,
      "chers": 5177,
      "ii": 5178,
      "Ġaesthetic": 5179,
      "enced": 5180,
      "Ġgall": 5181,
      "opy": 5182,
      "Ġkm": 5183,
      "ĠThomas": 5184,
      "Ġsurpris": 5185,
      "Ġcollege": 5186,
      "Ġutil": 5187,
      "Ġjobs": 5188,
      "Ġspiritual": 5189,
      "ĠCatholic": 5190,
      "ball": 5191,
      "rating": 5192,
      "Ġhorm": 5193,
      "idity": 5194,
      "ĠCap": 5195,
      "iform": 5196,
      "ĠPub": 5197,
      "Ġdisapp": 5198,
      "Ġtrust": 5199,
      "Ġorganic": 5200,
      "Ġequival": 5201,
      "Ġviews": 5202,
      "ĠSmith": 5203,
      "bi": 5204,
      "col": 5205,
      "ta": 5206,
      "tra": 5207,
      "Ġped": 5208,
      "ania": 5209,
      "Ġhit": 5210,
      "Ġfort": 5211,
      "Ġ1995": 5212,
      "Ġlooks": 5213,
      "ĠCompany": 5214,
      "Ġvillage": 5215,
      "Ġadjust": 5216,
      "OT": 5217,
      "state": 5218,
      "ĠMark": 5219,
      "Ġleaving": 5220,
      "Ġshot": 5221,
      "Ġwealth": 5222,
      "achuse": 5223,
      "Ġroof": 5224,
      "Ġcritic": 5225,
      "ĠChev": 5226,
      "yroid": 5227,
      "kins": 5228,
      "ville": 5229,
      "Ã¡": 5230,
      "etics": 5231,
      "otes": 5232,
      "ĠBas": 5233,
      "Ġexternal": 5234,
      "ĠLet": 5235,
      "Ġintellig": 5236,
      "Ġallerg": 5237,
      "Ġarms": 5238,
      "standing": 5239,
      "going": 5240,
      "Ġpollution": 5241,
      "Ġelectrical": 5242,
      "CD": 5243,
      "tts": 5244,
      "Ġfly": 5245,
      "Ġfol": 5246,
      "ective": 5247,
      "pping": 5248,
      "ĠEmp": 5249,
      "Ġspl": 5250,
      "ĠOp": 5251,
      "Ġcommit": 5252,
      "rows": 5253,
      "Ġproperly": 5254,
      "Ġabsolute": 5255,
      "Ġoriginally": 5256,
      "Ġmentioned": 5257,
      "achusetts": 5258,
      "iated": 5259,
      "inter": 5260,
      "Ġdie": 5261,
      "stood": 5262,
      "ĠWind": 5263,
      "ĠRad": 5264,
      "Ġjur": 5265,
      "ĠStand": 5266,
      "Ġprepar": 5267,
      "Ġsetting": 5268,
      "Ġcontinuous": 5269,
      "Ġmeasured": 5270,
      "Ġ1980": 5271,
      "However": 5272,
      "Ind": 5273,
      "Ġwet": 5274,
      "Ġbed": 5275,
      "Ġbrief": 5276,
      "Ġfrag": 5277,
      "Ġprohib": 5278,
      "ĠPers": 5279,
      "aker": 5280,
      "Ġparties": 5281,
      "rapy": 5282,
      "idden": 5283,
      "ĠReport": 5284,
      "Ġwildlife": 5285,
      "ras": 5286,
      "Ġ1997": 5287,
      "Ġclasses": 5288,
      "Ġadvanced": 5289,
      "Ġtrials": 5290,
      "ĠStudents": 5291,
      "Ġlaboratory": 5292,
      "Ġencourage": 5293,
      "Here": 5294,
      "gment": 5295,
      "vity": 5296,
      "Ġdust": 5297,
      "celer": 5298,
      "Ġstored": 5299,
      "ĠPet": 5300,
      "unk": 5301,
      "Ġelectronic": 5302,
      "Ġlooked": 5303,
      "Ġcollected": 5304,
      "Ġconcern": 5305,
      "Ġdomestic": 5306,
      "Ġdetailed": 5307,
      "Ġbeautiful": 5308,
      "DF": 5309,
      "normal": 5310,
      "onic": 5311,
      "Ġwww": 5312,
      "Ġfell": 5313,
      "olars": 5314,
      "amil": 5315,
      "ivation": 5316,
      "Ġrepresents": 5317,
      "Ġbuy": 5318,
      "Ġowners": 5319,
      "Ġeastern": 5320,
      "Ġneighbor": 5321,
      "Ġrepeated": 5322,
      ".'": 5323,
      "During": 5324,
      "Ġtiny": 5325,
      "Ġfelt": 5326,
      "ĠPsych": 5327,
      "ĠBen": 5328,
      "Ġattacks": 5329,
      "Ġtechnical": 5330,
      "Ġreduction": 5331,
      "Ġtopic": 5332,
      "Ġdynam": 5333,
      "Ġsequence": 5334,
      "Ġcredit": 5335,
      "Ġcontrolled": 5336,
      "sembly": 5337,
      "31": 5338,
      "46": 5339,
      "AD": 5340,
      "iced": 5341,
      "Ġbutter": 5342,
      "âĢĿ.": 5343,
      "Ġ300": 5344,
      "Ġcalls": 5345,
      "Ġfacts": 5346,
      "Ġapproaches": 5347,
      "Ġbird": 5348,
      "Ġtopics": 5349,
      "Ġimpacts": 5350,
      "Ġfamiliar": 5351,
      "Ġengineering": 5352,
      "Ġrevolution": 5353,
      "Ġpurposes": 5354,
      "Ġmanufacture": 5355,
      "EL": 5356,
      "racy": 5357,
      "ĠMont": 5358,
      "ĠVict": 5359,
      "Ġadvoc": 5360,
      "Ġadvance": 5361,
      "Ġdescription": 5362,
      "De": 5363,
      "ki": 5364,
      "tion": 5365,
      "Ġthin": 5366,
      "ĠBudd": 5367,
      "ĠSea": 5368,
      "Ġtried": 5369,
      "Ġrelevant": 5370,
      "Ġera": 5371,
      "Ġmulti": 5372,
      "Ġprofession": 5373,
      "Ġconcerns": 5374,
      "Ġdouble": 5375,
      "Ġrapidly": 5376,
      "CO": 5377,
      "itud": 5378,
      "irty": 5379,
      "emia": 5380,
      "ĠFre": 5381,
      "ĠLibrary": 5382,
      "active": 5383,
      "Ġformal": 5384,
      "Ġerror": 5385,
      "Ġresponsibility": 5386,
      "kes": 5387,
      "lers": 5388,
      "rolet": 5389,
      "oln": 5390,
      "Ġyellow": 5391,
      "ategy": 5392,
      "ĠBook": 5393,
      "ĠFort": 5394,
      "Ġrough": 5395,
      "inding": 5396,
      "Ġsupplies": 5397,
      "Ġstrategy": 5398,
      "Ġcapable": 5399,
      "Ġsubstance": 5400,
      "Ġwonder": 5401,
      "Ġcamer": 5402,
      "Ġnine": 5403,
      "ĠTimes": 5404,
      "Ġstated": 5405,
      "ĠPower": 5406,
      "ĠDise": 5407,
      "Ġgoods": 5408,
      "comp": 5409,
      "Ġbrown": 5410,
      "Ġmillions": 5411,
      "Ġwalls": 5412,
      "ship": 5413,
      "Ġcards": 5414,
      "Ġnan": 5415,
      "ĠPri": 5416,
      "ĠBrown": 5417,
      "Ġrural": 5418,
      "Ġformation": 5419,
      "Ġexperiments": 5420,
      "Ġsector": 5421,
      "Ġfaster": 5422,
      "Ġlik": 5423,
      "oster": 5424,
      "ĠOnce": 5425,
      "Ġcolors": 5426,
      "Ġroot": 5427,
      "Ġseek": 5428,
      "Ġprotected": 5429,
      "Ġorganized": 5430,
      "ĠColor": 5431,
      "Ġnutrition": 5432,
      "Ġpregnant": 5433,
      "ocratic": 5434,
      "Ġcrisis": 5435,
      "zen": 5436,
      "Ġpray": 5437,
      "otic": 5438,
      "ada": 5439,
      "ĠHol": 5440,
      "Ġ1970": 5441,
      "Ġclosely": 5442,
      "Ġwarming": 5443,
      "heim": 5444,
      "Ġpure": 5445,
      "ompl": 5446,
      "Ġnarrow": 5447,
      "Ġancest": 5448,
      "ache": 5449,
      "ĠDan": 5450,
      "Ġcloth": 5451,
      "Ġexpensive": 5452,
      "Ġlands": 5453,
      "Ġexperiences": 5454,
      "ĠRussia": 5455,
      "Ġ<": 5456,
      "Ġtail": 5457,
      "Ġmos": 5458,
      "ĠNorthern": 5459,
      "ĠLeg": 5460,
      "Ġunless": 5461,
      "ĠConn": 5462,
      "ipped": 5463,
      "Ġkinds": 5464,
      "Ġincreasingly": 5465,
      "Ġassessment": 5466,
      "war": 5467,
      "inating": 5468,
      "Ġod": 5469,
      "Ġ1993": 5470,
      "Ġsky": 5471,
      "Ġsubjects": 5472,
      "Ġadopted": 5473,
      "Ġprocedures": 5474,
      "'m": 5475,
      "05": 5476,
      "47": 5477,
      "ded": 5478,
      "inity": 5479,
      "Ġborder": 5480,
      "stream": 5481,
      "ĠPeter": 5482,
      "Ġheight": 5483,
      "Ġhaz": 5484,
      "Ġrub": 5485,
      "Ġtransform": 5486,
      "azine": 5487,
      "Ġfrequency": 5488,
      "Ġdogs": 5489,
      "ĠMassachusetts": 5490,
      "RC": 5491,
      "liam": 5492,
      "ãģ": 5493,
      "inent": 5494,
      "ario": 5495,
      "Ġdut": 5496,
      "ĠSou": 5497,
      "ĠSuch": 5498,
      "ĠBoth": 5499,
      "oston": 5500,
      "ĠJose": 5501,
      "agues": 5502,
      "rison": 5503,
      "Ġplayed": 5504,
      "Ġmolecules": 5505,
      "aturally": 5506,
      "Ġsustainable": 5507,
      "Ġhyper": 5508,
      "Ġmoist": 5509,
      "Ġcandid": 5510,
      "last": 5511,
      "heric": 5512,
      "Ġanx": 5513,
      "osystem": 5514,
      "ĠDiv": 5515,
      "Ġplastic": 5516,
      "Ġtraffic": 5517,
      "Ġregional": 5518,
      "example": 5519,
      "Ġdepth": 5520,
      "Ġpaint": 5521,
      "Ġdespite": 5522,
      "long": 5523,
      "sen": 5524,
      "Ġax": 5525,
      "inant": 5526,
      "eria": 5527,
      "Ġmaster": 5528,
      "Ġliver": 5529,
      "ĠST": 5530,
      "ĠMa": 5531,
      "Ġparticles": 5532,
      "ĠArctic": 5533,
      "Ġtypical": 5534,
      "Ġhappened": 5535,
      "Ġmassive": 5536,
      "ictionary": 5537,
      "Ġfossil": 5538,
      "Ġenemy": 5539,
      "Gen": 5540,
      "inet": 5541,
      "Ġcomment": 5542,
      "apes": 5543,
      "Ġagency": 5544,
      "Ġphase": 5545,
      "Ġexpressed": 5546,
      "Ġsubsequ": 5547,
      "ĠTherefore": 5548,
      "ĠAtt": 5549,
      "Ġlatest": 5550,
      "Ġnormally": 5551,
      "Ġmembrane": 5552,
      "Ġliquid": 5553,
      "Ġ#": 5554,
      "Ġbones": 5555,
      "Ġfold": 5556,
      "Ġgrown": 5557,
      "ĠBi": 5558,
      "ĠHel": 5559,
      "ĠLong": 5560,
      "Ġweap": 5561,
      "Ġdecade": 5562,
      "Ġdepending": 5563,
      "Ġcertainly": 5564,
      "Ġurban": 5565,
      "Ġfunding": 5566,
      "ĠPeace": 5567,
      "brew": 5568,
      "ĠMichael": 5569,
      "Ġsides": 5570,
      "itter": 5571,
      "Ġpestic": 5572,
      "alian": 5573,
      "ĠTor": 5574,
      "amily": 5575,
      "atever": 5576,
      "ĠBa": 5577,
      "ĠChic": 5578,
      "Ġacts": 5579,
      "ĠSciences": 5580,
      "ĠCorps": 5581,
      "Ġprinciple": 5582,
      "Ġdoubt": 5583,
      "uable": 5584,
      "atform": 5585,
      "Ġfirm": 5586,
      "Ġnarr": 5587,
      "Ġlas": 5588,
      "ifies": 5589,
      "ĠWord": 5590,
      "ogle": 5591,
      "Ġclosed": 5592,
      "Ġarrest": 5593,
      "Ġacceler": 5594,
      "Ġleads": 5595,
      "Ġsurvival": 5596,
      "pidem": 5597,
      "Ġprecise": 5598,
      "Ġsurrounding": 5599,
      "ĠKorea": 5600,
      "Con": 5601,
      "ny": 5602,
      "ooth": 5603,
      "Ġgun": 5604,
      "ĠDar": 5605,
      "ework": 5606,
      "Ġrelation": 5607,
      "ĠHebrew": 5608,
      "Ġflat": 5609,
      "Ġlandsc": 5610,
      "Ġdiscussed": 5611,
      "Ġanswers": 5612,
      "ĠSecurity": 5613,
      "500": 5614,
      "PS": 5615,
      "Ġdaughter": 5616,
      "abil": 5617,
      "Ġchick": 5618,
      "ureau": 5619,
      "aks": 5620,
      "Ġimpossible": 5621,
      "Ġfloor": 5622,
      "exp": 5623,
      "Ġfounded": 5624,
      "Ġpossibility": 5625,
      "Ġmainly": 5626,
      "Ġissued": 5627,
      "Ġpractical": 5628,
      "Ġmovements": 5629,
      "Ġcomputers": 5630,
      "Ġphysician": 5631,
      "Ġintellectual": 5632,
      "reci": 5633,
      "Ġcrim": 5634,
      "orph": 5635,
      "cel": 5636,
      "Ġdoctors": 5637,
      "cience": 5638,
      "Ġrecy": 5639,
      "ĠYet": 5640,
      "Ġphone": 5641,
      "Ġattached": 5642,
      "ĠAnother": 5643,
      "ĠSpanish": 5644,
      "Ġperiods": 5645,
      "Ġlaun": 5646,
      "ĠSecond": 5647,
      "Ġobtained": 5648,
      "bing": 5649,
      "Ġsounds": 5650,
      "rot": 5651,
      "ĠMo": 5652,
      "ĠHall": 5653,
      "osal": 5654,
      "Ġ36": 5655,
      "Ġflight": 5656,
      "inson": 5657,
      "Ġinstruction": 5658,
      "Ġemployment": 5659,
      "ĠVietnam": 5660,
      "Ġhusband": 5661,
      "03": 5662,
      "Ġfit": 5663,
      "arp": 5664,
      "Ġmist": 5665,
      "Ġreject": 5666,
      "Ġvul": 5667,
      "reatment": 5668,
      "Ġtwice": 5669,
      "Ġpoet": 5670,
      "Ġminimum": 5671,
      "Ġexplained": 5672,
      "Ġbroken": 5673,
      "ercury": 5674,
      "Ġflowers": 5675,
      "Ġsatell": 5676,
      "ĠÃ": 5677,
      "ora": 5678,
      "icians": 5679,
      "ston": 5680,
      "vert": 5681,
      "ĠPost": 5682,
      "ĠHome": 5683,
      "agers": 5684,
      "Ġdiscipl": 5685,
      "Ġproducing": 5686,
      "ognitive": 5687,
      "ĠCanadian": 5688,
      "Ġselected": 5689,
      "Ġdiscrimination": 5690,
      "55": 5691,
      "cons": 5692,
      "greg": 5693,
      "iate": 5694,
      "ka": 5695,
      "roke": 5696,
      "ĠIll": 5697,
      "Ġsuc": 5698,
      "Ġshared": 5699,
      "ava": 5700,
      "Ġinstall": 5701,
      "Ġelected": 5702,
      "Ġpossess": 5703,
      "Ġgreatly": 5704,
      "Ġlimits": 5705,
      "Ġprompt": 5706,
      "Ġopened": 5707,
      "Ġobservations": 5708,
      "Ġthousand": 5709,
      "unteers": 5710,
      "liament": 5711,
      "34": 5712,
      "inction": 5713,
      "Ġsick": 5714,
      "olit": 5715,
      "ĠAri": 5716,
      "ĠMP": 5717,
      "ĠNature": 5718,
      "Ġagencies": 5719,
      "Ġhelping": 5720,
      "Ġcareer": 5721,
      "Ġappearance": 5722,
      "Ġhouses": 5723,
      "HO": 5724,
      "Note": 5725,
      "Our": 5726,
      "no": 5727,
      "Ġ>": 5728,
      "Ġoption": 5729,
      "Ġdatabase": 5730,
      "olf": 5731,
      "olve": 5732,
      "Ġaccompl": 5733,
      "Ġphr": 5734,
      "Ġresulted": 5735,
      "Ġpolitics": 5736,
      "Ġlanguages": 5737,
      "Ġrepresented": 5738,
      "Ġefficiency": 5739,
      "Ġcouple": 5740,
      "avery": 5741,
      "Ġflex": 5742,
      "ican": 5743,
      "ĠNations": 5744,
      "Ġchann": 5745,
      "Ġphotograph": 5746,
      "Ġastron": 5747,
      "ĠProfessor": 5748,
      "02": 5749,
      "ION": 5750,
      "Ġfing": 5751,
      "Ġmort": 5752,
      "ĠAD": 5753,
      "ested": 5754,
      "acher": 5755,
      "ĠWell": 5756,
      "Ġvital": 5757,
      "Ġabuse": 5758,
      "ĠOx": 5759,
      "ĠThose": 5760,
      "Ġmuscles": 5761,
      "aska": 5762,
      "Ġcomponent": 5763,
      "Ġmalaria": 5764,
      "Don": 5765,
      "such": 5766,
      "Ġcart": 5767,
      "ctive": 5768,
      "Ġunlike": 5769,
      "anged": 5770,
      "Ġdecline": 5771,
      "Ġshel": 5772,
      "Ġsatis": 5773,
      "Ġjoined": 5774,
      "Ġtransmission": 5775,
      "Ã¼": 5776,
      "Äģ": 5777,
      "Ġtons": 5778,
      "Ġwire": 5779,
      "oting": 5780,
      "istant": 5781,
      "ĠEth": 5782,
      "ĠFurther": 5783,
      "Ġselection": 5784,
      "Ġrh": 5785,
      "Ġenforce": 5786,
      "Ġresidents": 5787,
      "athy": 5788,
      "Ġsubs": 5789,
      "Ġmedium": 5790,
      "Ġextract": 5791,
      "Ġreplaced": 5792,
      "Ġaffects": 5793,
      "Ġharvest": 5794,
      "Ġvegetables": 5795,
      "Ġcomprehensive": 5796,
      "ĠEmpire": 5797,
      "cher": 5798,
      "ean": 5799,
      "Ġindu": 5800,
      "Ġmuseum": 5801,
      "Ġtow": 5802,
      "ĠBot": 5803,
      "ocation": 5804,
      "Ġadequ": 5805,
      "cium": 5806,
      "oven": 5807,
      "Ġformat": 5808,
      "Ġextensive": 5809,
      "incoln": 5810,
      "Ġargument": 5811,
      "Ġearthqu": 5812,
      "Ġindependence": 5813,
      "ĠFrancisc": 5814,
      "Ġtheories": 5815,
      "urd": 5816,
      "Ġhem": 5817,
      "luding": 5818,
      "Ġaccomp": 5819,
      "Ġworldwide": 5820,
      "ĠAnn": 5821,
      "Ġtreatments": 5822,
      "Ġpotentially": 5823,
      "ĠExp": 5824,
      "Ġnecessarily": 5825,
      "Ġlayers": 5826,
      "UN": 5827,
      "ding": 5828,
      "een": 5829,
      "from": 5830,
      "Ġbatter": 5831,
      "Ġgone": 5832,
      "ĠCa": 5833,
      "ulin": 5834,
      "ĠEvery": 5835,
      "ĠStat": 5836,
      "Ġindeed": 5837,
      "Ġblog": 5838,
      "Ġassistance": 5839,
      "Ġentirely": 5840,
      "Ġconcentration": 5841,
      "Ġadministration": 5842,
      "stein": 5843,
      "TM": 5844,
      "know": 5845,
      "mas": 5846,
      "ansion": 5847,
      "Ġprem": 5848,
      "oking": 5849,
      "Ġfollows": 5850,
      "Ġcrew": 5851,
      "Ġ1994": 5852,
      "Ġexplains": 5853,
      "Ġfeeling": 5854,
      "Ġlaunch": 5855,
      "Ġsurvive": 5856,
      "Ġpictures": 5857,
      "Ġtumor": 5858,
      "ĠColumbia": 5859,
      "88": 5860,
      "eor": 5861,
      "Ġtoler": 5862,
      "ĠBC": 5863,
      "ĠRem": 5864,
      "ĠGr": 5865,
      "Ġunderstood": 5866,
      "Ġrefers": 5867,
      "Another": 5868,
      "ĠFrank": 5869,
      "Ġimmediate": 5870,
      "Ġhorse": 5871,
      "Ġgalax": 5872,
      "EM": 5873,
      "orrow": 5874,
      "Ġbud": 5875,
      "Ġinher": 5876,
      "ĠBoston": 5877,
      "Ġregist": 5878,
      "ropical": 5879,
      "ĠAdminist": 5880,
      "Ġlisted": 5881,
      "Ġsensitive": 5882,
      "ĠGlobal": 5883,
      "Ġemotional": 5884,
      "ĠCarolina": 5885,
      "Ġexcellent": 5886,
      "rary": 5887,
      "heast": 5888,
      "Ġpra": 5889,
      "Ġlibrary": 5890,
      "ĠAp": 5891,
      "ĠGrand": 5892,
      "ĠLand": 5893,
      "Ġperce": 5894,
      "Ġjour": 5895,
      "Ġteeth": 5896,
      "Ġinfected": 5897,
      "riculum": 5898,
      "erman": 5899,
      "venue": 5900,
      "Ġprevention": 5901,
      "Ġslowly": 5902,
      "Ġkidney": 5903,
      "Ġopinion": 5904,
      "Ġpermanent": 5905,
      "eper": 5906,
      "rint": 5907,
      "Ġlies": 5908,
      "ima": 5909,
      "ĠGood": 5910,
      "ĠLab": 5911,
      "Ġarts": 5912,
      "Ġunknown": 5913,
      "Ġsupposed": 5914,
      "Ġsignal": 5915,
      "Ġnutri": 5916,
      "Ġcrops": 5917,
      "01": 5918,
      "organ": 5919,
      "Ġnaturally": 5920,
      "iest": 5921,
      "Ġspend": 5922,
      "ĠOcean": 5923,
      "eck": 5924,
      "Ġperspective": 5925,
      "Ġdefe": 5926,
      "vironments": 5927,
      "Ġvisible": 5928,
      "Ġvector": 5929,
      "Ġmarked": 5930,
      "Ġkeeping": 5931,
      "Ġemployees": 5932,
      "Ġnegot": 5933,
      "Ġmechanism": 5934,
      ".]": 5935,
      "IA": 5936,
      "Te": 5937,
      "field": 5938,
      "ĠBet": 5939,
      "Ġinflamm": 5940,
      "Ġrecip": 5941,
      "Ġlesson": 5942,
      "iodiversity": 5943,
      "Ġfluid": 5944,
      "ĠStudies": 5945,
      "Ġgirls": 5946,
      "Ġpretty": 5947,
      "Ġcircumst": 5948,
      "cyclopedia": 5949,
      "44": 5950,
      "Ġaw": 5951,
      "ione": 5952,
      "leg": 5953,
      "asure": 5954,
      "ĠTHE": 5955,
      "Ġaren": 5956,
      "Ġremaining": 5957,
      "Ġoccasion": 5958,
      "Ġbiology": 5959,
      "Ġfocused": 5960,
      "xual": 5961,
      "ĠNor": 5962,
      "Ġchromos": 5963,
      "ĠLu": 5964,
      "Ġplatform": 5965,
      "ipal": 5966,
      "teen": 5967,
      "Ġadding": 5968,
      "Ġdepends": 5969,
      "Ġcolleagues": 5970,
      "Ġdebate": 5971,
      "Ġapart": 5972,
      "ING": 5973,
      "HA": 5974,
      "rem": 5975,
      "esis": 5976,
      "ĠIV": 5977,
      "abled": 5978,
      "ighter": 5979,
      "alls": 5980,
      "acters": 5981,
      "ĠStreet": 5982,
      "Ġsimpl": 5983,
      "anguage": 5984,
      "ĠChevrolet": 5985,
      "ĠChicago": 5986,
      "called": 5987,
      "des": 5988,
      "wo": 5989,
      "iner": 5990,
      "rey": 5991,
      "leton": 5992,
      "ĠTer": 5993,
      "Ġorient": 5994,
      "osph": 5995,
      "ĠDisc": 5996,
      "Ġamino": 5997,
      "Ġobl": 5998,
      "Ġ500": 5999,
      "Ġparalle": 6000,
      "ĠClass": 6001,
      "Ġdeliver": 6002,
      "ymph": 6003,
      "Ġgrass": 6004,
      "Ġhoriz": 6005,
      "Ġconsequences": 6006,
      "77": 6007,
      "rine": 6008,
      "upp": 6009,
      "isters": 6010,
      "Ġinhib": 6011,
      "Ġlov": 6012,
      "Ġgender": 6013,
      "ĠIr": 6014,
      "irds": 6015,
      "Ġconstit": 6016,
      "osm": 6017,
      "ĠDel": 6018,
      "ĠNat": 6019,
      "Ġmoral": 6020,
      "Ġframe": 6021,
      "http": 6022,
      "mad": 6023,
      "rep": 6024,
      "Ġinject": 6025,
      "Ġrid": 6026,
      "igned": 6027,
      "ĠOnly": 6028,
      "ĠUSA": 6029,
      "Ġphotos": 6030,
      "Ġclaimed": 6031,
      "ĠDirector": 6032,
      "Ġequivalent": 6033,
      "95": 6034,
      "Cont": 6035,
      "under": 6036,
      "asks": 6037,
      "using": 6038,
      "ocracy": 6039,
      "Ġreform": 6040,
      "Ġeditor": 6041,
      "Ġdefense": 6042,
      "Ġideal": 6043,
      "Ġimmig": 6044,
      "Ġimmun": 6045,
      "Ġintroduction": 6046,
      "Ġsuperior": 6047,
      "Ġcounsel": 6048,
      "Ġmountain": 6049,
      "ĠRichard": 6050,
      "inn": 6051,
      "ĠProp": 6052,
      "throp": 6053,
      "ĠWil": 6054,
      "Ġclick": 6055,
      "Ġraise": 6056,
      "Ġacres": 6057,
      "Ġhelpful": 6058,
      "Ġgenerate": 6059,
      "Ġ1960": 6060,
      "ĠControl": 6061,
      "Ġroute": 6062,
      "Ġinsects": 6063,
      "Ġsediment": 6064,
      "ioxide": 6065,
      "DP": 6066,
      "born": 6067,
      "ss": 6068,
      "Ġsail": 6069,
      "Ġmand": 6070,
      "Ġmath": 6071,
      "Ġmix": 6072,
      "Ġnone": 6073,
      "oto": 6074,
      "ĠLittle": 6075,
      "earchers": 6076,
      "ansas": 6077,
      "Ġcontribute": 6078,
      "Ġuniverse": 6079,
      "Ġexamine": 6080,
      "Ġextended": 6081,
      "Ġdepression": 6082,
      "Ġminim": 6083,
      "Ġpossibly": 6084,
      "Ġsolutions": 6085,
      "Ġcontrols": 6086,
      "Ġswim": 6087,
      "Ġrecognize": 6088,
      "Ġscholars": 6089,
      "ĠRobin": 6090,
      "Dr": 6091,
      "Ġing": 6092,
      "Ġstock": 6093,
      "ĠMu": 6094,
      "ĠRoyal": 6095,
      "Ġsubm": 6096,
      "Ġmedic": 6097,
      "Ġentered": 6098,
      "cling": 6099,
      "Ġerr": 6100,
      "Med": 6101,
      "Ġille": 6102,
      "Ġsections": 6103,
      "ĠLincoln": 6104,
      "Ġindex": 6105,
      "Ġ1992": 6106,
      "Ġguidelines": 6107,
      "Ġmarried": 6108,
      "Ġsuccessfully": 6109,
      "ĠAbout": 6110,
      "Ġindicates": 6111,
      "Ġsentence": 6112,
      "ĠSecret": 6113,
      "Ġdivision": 6114,
      "Ġnucle": 6115,
      "Ġrevealed": 6116,
      "dden": 6117,
      "free": 6118,
      "rete": 6119,
      "Ġcatch": 6120,
      "Ġneither": 6121,
      "ĠLike": 6122,
      "Ġlect": 6123,
      "Ġoutl": 6124,
      "Ġsurf": 6125,
      "Ġmyth": 6126,
      "Ġelev": 6127,
      "Ġfacilit": 6128,
      "Ġderived": 6129,
      "ĠInstead": 6130,
      "ĠVictor": 6131,
      "Last": 6132,
      "gent": 6133,
      "oples": 6134,
      "Ġappreci": 6135,
      "Ġcommitted": 6136,
      "Ġrail": 6137,
      "arsh": 6138,
      "Ġfewer": 6139,
      "Ġinvolving": 6140,
      "Ġlisten": 6141,
      "rastructure": 6142,
      "Ġhydrogen": 6143,
      "ceeded": 6144,
      "html": 6145,
      "Ġstruggle": 6146,
      "65": 6147,
      "Ġpark": 6148,
      "ĠTr": 6149,
      "ĠMel": 6150,
      "ĠPop": 6151,
      "isted": 6152,
      "Ġenvironments": 6153,
      "hips": 6154,
      "Ġoperate": 6155,
      "ployment": 6156,
      "Ġresponses": 6157,
      "ascular": 6158,
      "Ġawareness": 6159,
      "Ġsituations": 6160,
      "Ġphilosophy": 6161,
      "Ġfalse": 6162,
      "My": 6163,
      "Rec": 6164,
      "eenth": 6165,
      "wing": 6166,
      "Â·": 6167,
      "Ġath": 6168,
      "othe": 6169,
      "ĠCult": 6170,
      "rier": 6171,
      "Ġchapter": 6172,
      "Ġmode": 6173,
      "Ġstring": 6174,
      "Ġelections": 6175,
      "Ġopening": 6176,
      "ĠExper": 6177,
      "Ġinteraction": 6178,
      "Ġinterpre": 6179,
      "opyright": 6180,
      "73": 6181,
      "?\"": 6182,
      "Ġinner": 6183,
      "Ġles": 6184,
      "ĠEnd": 6185,
      "ocument": 6186,
      "Ġcomposition": 6187,
      "ĠVer": 6188,
      "Ġagreed": 6189,
      "erves": 6190,
      "Ġconfir": 6191,
      "Ġdirected": 6192,
      "Ġtells": 6193,
      "Ġachieved": 6194,
      "ĠRevolution": 6195,
      "Ġmobile": 6196,
      "Ġinstrument": 6197,
      "ĠWildlife": 6198,
      "Ġlaunched": 6199,
      "Ġvulner": 6200,
      "43": 6201,
      "85": 6202,
      "CT": 6203,
      "run": 6204,
      "Ġdream": 6205,
      "Ġforth": 6206,
      "irth": 6207,
      "ĠWall": 6208,
      "Ġagents": 6209,
      "Ġroll": 6210,
      "Ġcenters": 6211,
      "Ġautism": 6212,
      "Ġdescribes": 6213,
      "Ġofficers": 6214,
      "Ġgrew": 6215,
      "ĠParis": 6216,
      "Ġecosystem": 6217,
      "Ġarrived": 6218,
      "Ġprisoners": 6219,
      "Ġconventional": 6220,
      "ĠSouthern": 6221,
      "89": 6222,
      "rative": 6223,
      "Ġpig": 6224,
      "Ġpull": 6225,
      "rob": 6226,
      "ĠSaf": 6227,
      "Ġprove": 6228,
      "ĠMer": 6229,
      "Ġwhales": 6230,
      "ĠFree": 6231,
      "ĠOh": 6232,
      "ĠOut": 6233,
      "agn": 6234,
      "Ġappeal": 6235,
      "Ġconscious": 6236,
      "Ġcalcium": 6237,
      "Ġembry": 6238,
      "Ġleadership": 6239,
      "Ġjoin": 6240,
      "Ġmerely": 6241,
      "IL": 6242,
      "dis": 6243,
      "hand": 6244,
      "Ġsight": 6245,
      "igan": 6246,
      "ĠImp": 6247,
      "ĠPan": 6248,
      "Ġcomfort": 6249,
      "Ġsudden": 6250,
      "Ġmanaged": 6251,
      "âĢĿ,": 6252,
      "Ġages": 6253,
      "Ġremote": 6254,
      "Ġ75": 6255,
      "Ġannounced": 6256,
      "ĠGuide": 6257,
      "Ġhonor": 6258,
      ":||": 6259,
      "Ġtaught": 6260,
      "ĠCard": 6261,
      "ĠWood": 6262,
      "Ġsomewhat": 6263,
      "Ġinvestment": 6264,
      "while": 6265,
      "ĠBoard": 6266,
      "IDS": 6267,
      "Ġspeaking": 6268,
      "Ġregularly": 6269,
      "ĠUsing": 6270,
      "heimer": 6271,
      "CS": 6272,
      "inos": 6273,
      "ĠDi": 6274,
      "Ġneck": 6275,
      "ĠGold": 6276,
      "peror": 6277,
      "Ġunion": 6278,
      "ensions": 6279,
      "Ġamb": 6280,
      "Ġsupplement": 6281,
      "Ġexplo": 6282,
      "Ġmatters": 6283,
      "Ġdelay": 6284,
      "Ġdeaths": 6285,
      "apping": 6286,
      "ĠGoogle": 6287,
      "Ġdemonstrated": 6288,
      "Ġaccurate": 6289,
      "ait": 6290,
      "Ġaward": 6291,
      "Ġsan": 6292,
      "Ġcup": 6293,
      "Ġdiam": 6294,
      "Ġdrought": 6295,
      "ĠTime": 6296,
      "ĠAgency": 6297,
      "ĠBur": 6298,
      "usal": 6299,
      "Ġchosen": 6300,
      "Ġsports": 6301,
      "Ġworse": 6302,
      "Ġdefic": 6303,
      "Ġsecure": 6304,
      "espread": 6305,
      "nedy": 6306,
      "prise": 6307,
      "Ġmeasurements": 6308,
      "Ġdeclared": 6309,
      "Ġforests": 6310,
      "Ġdecrease": 6311,
      "ĠNetwork": 6312,
      "ĠAtlantic": 6313,
      "99": 6314,
      "Se": 6315,
      "gov": 6316,
      "hist": 6317,
      "hma": 6318,
      "zil": 6319,
      "icks": 6320,
      "Ġdiversity": 6321,
      "Ġdioxide": 6322,
      "Ġvoice": 6323,
      "ĠExt": 6324,
      "Ġinterview": 6325,
      "Ġmedications": 6326,
      "Ġcourts": 6327,
      "Ġengaged": 6328,
      "Ġnetworks": 6329,
      "Ġprepare": 6330,
      "Ġbullying": 6331,
      "Ġpowers": 6332,
      "Ġvehicles": 6333,
      "Ġenhance": 6334,
      "06": 6335,
      "alination": 6336,
      "ĠRome": 6337,
      "Ġenable": 6338,
      "Ġimper": 6339,
      "Ġdoi": 6340,
      "Ġmanif": 6341,
      "Ġchildhood": 6342,
      "Ġsets": 6343,
      "Ġcharacters": 6344,
      "Ġvaluable": 6345,
      "Ġslaves": 6346,
      "Ġrivers": 6347,
      "ĠAustralian": 6348,
      "Ġagreement": 6349,
      "zyme": 6350,
      "Ġvessels": 6351,
      "Im": 6352,
      "Ġsell": 6353,
      "ĠAst": 6354,
      "Ġalg": 6355,
      "erent": 6356,
      "Ġseed": 6357,
      "Ġcommission": 6358,
      "Ġattend": 6359,
      "Ġstudying": 6360,
      "Ġwriters": 6361,
      "ĠManagement": 6362,
      "ĠConservation": 6363,
      "Ġvaccine": 6364,
      "ĠSpecial": 6365,
      "Ġdollars": 6366,
      "74": 6367,
      "En": 6368,
      "Ġfasc": 6369,
      "sts": 6370,
      "ĠSol": 6371,
      "Ġmanip": 6372,
      "Ġrecovery": 6373,
      "Ġexpansion": 6374,
      "Ġdefend": 6375,
      "Ġreactions": 6376,
      "steroid": 6377,
      "Ġcaptured": 6378,
      "Ġcompetition": 6379,
      "Ġaqu": 6380,
      "Ġwave": 6381,
      "anes": 6382,
      "lets": 6383,
      "rovers": 6384,
      "ĠIP": 6385,
      "adel": 6386,
      "ĠDou": 6387,
      "Ġspin": 6388,
      "ĠKh": 6389,
      "Ġsole": 6390,
      "ificial": 6391,
      "weight": 6392,
      "Ġscene": 6393,
      "Ġ400": 6394,
      "Ġelectron": 6395,
      "Ġrising": 6396,
      "Ġruns": 6397,
      "Ġemployed": 6398,
      "Ġsoldiers": 6399,
      "Ġcriminal": 6400,
      "produ": 6401,
      "Ġsought": 6402,
      "Ġwitness": 6403,
      "Ġfract": 6404,
      "Ġstorm": 6405,
      "Ġstret": 6406,
      "ĠEr": 6407,
      "Ġchain": 6408,
      "Ġtrain": 6409,
      "Ġpoison": 6410,
      "Ġcars": 6411,
      "Ġglass": 6412,
      "Why": 6413,
      "Ġassociation": 6414,
      "Ġfishing": 6415,
      "Ġparticipate": 6416,
      "ĠParty": 6417,
      "Ġframework": 6418,
      "bar": 6419,
      "Ġmoon": 6420,
      "Ġepidem": 6421,
      "ĠTem": 6422,
      "Ġcomments": 6423,
      "Ġunus": 6424,
      "Ġaccum": 6425,
      "comes": 6426,
      "Ġsecondary": 6427,
      "ymes": 6428,
      "Stud": 6429,
      "Ġrarely": 6430,
      "Ġfighting": 6431,
      "ĠFrancisco": 6432,
      "04": 6433,
      "Re": 6434,
      "Ġaf": 6435,
      "Ġft": 6436,
      "Ġlose": 6437,
      "Ġbear": 6438,
      "Ġgather": 6439,
      "ĠIN": 6440,
      "Ġstreet": 6441,
      "eline": 6442,
      "tery": 6443,
      "ĠWik": 6444,
      "ĠGulf": 6445,
      "ifications": 6446,
      "ĠAny": 6447,
      "Ġmetab": 6448,
      "Ġstands": 6449,
      "Ġlegs": 6450,
      "Ġholding": 6451,
      "Ġinjuries": 6452,
      "IG": 6453,
      "arant": 6454,
      "icide": 6455,
      "Ġnest": 6456,
      "irt": 6457,
      "terior": 6458,
      "ĠEc": 6459,
      "ocy": 6460,
      "Ġmanage": 6461,
      "Ġuns": 6462,
      "Ġcombat": 6463,
      "Ġaccounts": 6464,
      "Ġtaxes": 6465,
      "Ġconstructed": 6466,
      "Ġvehicle": 6467,
      "Ġgranted": 6468,
      "EP": 6469,
      "aud": 6470,
      "bec": 6471,
      "Ġcert": 6472,
      "Ġfilled": 6473,
      "roat": 6474,
      "Ġhun": 6475,
      "Ġabnormal": 6476,
      "ĠOF": 6477,
      "outs": 6478,
      "ags": 6479,
      "Ġfoundation": 6480,
      "Ġafford": 6481,
      "Ġstanding": 6482,
      "Ġlateral": 6483,
      "Ġyounger": 6484,
      "Ġstrike": 6485,
      "Ġmechanisms": 6486,
      "Ġjudge": 6487,
      "ĠPolit": 6488,
      "ĠIslamic": 6489,
      "Ġagriculture": 6490,
      "ĠMuslims": 6491,
      "Ġtouch": 6492,
      "ĠKennedy": 6493,
      "ĠMartin": 6494,
      "Ġfertil": 6495,
      "CL": 6496,
      "Ġwish": 6497,
      "ĠAM": 6498,
      "ĠHospital": 6499,
      "unicip": 6500,
      "ĠLar": 6501,
      "Ġ1950": 6502,
      "Ġcommittee": 6503,
      "Ġ32": 6504,
      "Ġsurve": 6505,
      "Ġedition": 6506,
      "Ġsigned": 6507,
      "Ġowner": 6508,
      "Ġgenerated": 6509,
      "Ġengage": 6510,
      "Ġplaying": 6511,
      "ĠAgricult": 6512,
      "Ġcarrying": 6513,
      "ĠAvoid": 6514,
      "79": 6515,
      "cul": 6516,
      "rants": 6517,
      "Ġtank": 6518,
      "Ġlit": 6519,
      "etary": 6520,
      "Ġabund": 6521,
      "Ġintake": 6522,
      "Ġdoor": 6523,
      "Ġunable": 6524,
      "Ġdefine": 6525,
      "Ġ1996": 6526,
      "Ġcourses": 6527,
      "Ġgenerations": 6528,
      "Ġphysics": 6529,
      "Ġcarefully": 6530,
      "Ġrestrict": 6531,
      "Ġopposite": 6532,
      "Ġconsumers": 6533,
      "Ġsuffer": 6534,
      "Ġultimately": 6535,
      "ĠJoseph": 6536,
      "Ġingred": 6537,
      ")||": 6538,
      "CR": 6539,
      "gu": 6540,
      "net": 6541,
      "pan": 6542,
      "zed": 6543,
      "ĠAff": 6544,
      "ĠCat": 6545,
      "ĠFour": 6546,
      "andon": 6547,
      "Ġends": 6548,
      "ĠItaly": 6549,
      "teb": 6550,
      "Ġnoise": 6551,
      "hemical": 6552,
      "Ġzone": 6553,
      "Ġcouncil": 6554,
      "Ġtowns": 6555,
      "Ġhypothes": 6556,
      "Ġobtain": 6557,
      "ĠDistrict": 6558,
      "Ġexplanation": 6559,
      "itudes": 6560,
      "Ġcircumstances": 6561,
      "body": 6562,
      "oir": 6563,
      "Ã³": 6564,
      "stone": 6565,
      "uter": 6566,
      "ĠBre": 6567,
      "earing": 6568,
      "ults": 6569,
      "ricts": 6570,
      "Ġintervention": 6571,
      "Ġsupports": 6572,
      "Ġdifficulty": 6573,
      "Ġfemales": 6574,
      "Ġquarter": 6575,
      "adelph": 6576,
      "Do": 6577,
      "May": 6578,
      "flow": 6579,
      "rigation": 6580,
      "xts": 6581,
      "Ġ*": 6582,
      "Ġtips": 6583,
      "Ġwel": 6584,
      "emb": 6585,
      "ĠOs": 6586,
      "ibilities": 6587,
      "Ġregul": 6588,
      "Ġacids": 6589,
      "Ġinvent": 6590,
      "icted": 6591,
      "Ġpublication": 6592,
      "Ġnearby": 6593,
      "Ġcircle": 6594,
      "Ġhistoric": 6595,
      "ĠMinistry": 6596,
      "Ġburning": 6597,
      "Ġethnic": 6598,
      "ĠDesign": 6599,
      "Ġantibiot": 6600,
      "Ġcontemporary": 6601,
      "41": 6602,
      "SS": 6603,
      "cription": 6604,
      "iy": 6605,
      "ua": 6606,
      "Ġfurn": 6607,
      "ether": 6608,
      "ĠSand": 6609,
      "quit": 6610,
      "ĠGard": 6611,
      "Ġuniversity": 6612,
      "Ġinfrastructure": 6613,
      "Ġpeak": 6614,
      "ĠItalian": 6615,
      "inking": 6616,
      "Ġdecide": 6617,
      "Ġsmooth": 6618,
      "Ġlocations": 6619,
      "Ġdepart": 6620,
      "Ġprotocol": 6621,
      "Ġwriter": 6622,
      "Ġcorpor": 6623,
      "ipping": 6624,
      "________": 6625,
      "cribed": 6626,
      "Ġvictims": 6627,
      "Over": 6628,
      "imens": 6629,
      "ĠSup": 6630,
      "osh": 6631,
      "ĠData": 6632,
      "Ġinches": 6633,
      "Ġregulations": 6634,
      "Ġreaders": 6635,
      "ditional": 6636,
      "Ġsignificance": 6637,
      "ĠScott": 6638,
      "burg": 6639,
      "Ġterritory": 6640,
      "\")": 6641,
      "BS": 6642,
      "Pe": 6643,
      "las": 6644,
      "yal": 6645,
      "Ġâ": 6646,
      "Ġcontamin": 6647,
      "bert": 6648,
      "Ġshell": 6649,
      "Ġinsurance": 6650,
      "Ġpassage": 6651,
      "Ġphoto": 6652,
      "Ġinstitution": 6653,
      "ĠBrazil": 6654,
      "Ġwidespread": 6655,
      "ĠPortug": 6656,
      "adelphia": 6657,
      "'d": 6658,
      "First": 6659,
      "Since": 6660,
      "esity": 6661,
      "orter": 6662,
      "Ġpapers": 6663,
      "Ġexists": 6664,
      "Ġsharing": 6665,
      "Ġabandon": 6666,
      "anging": 6667,
      "everal": 6668,
      "Ġprovider": 6669,
      "ĠResources": 6670,
      "Ġinvestigation": 6671,
      "Ġdriving": 6672,
      "scale": 6673,
      "ĠGeorg": 6674,
      "Ġcrime": 6675,
      "Ġinteractions": 6676,
      "Ġmolecular": 6677,
      "ĠLearning": 6678,
      "Ġbutterf": 6679,
      "Ġbudget": 6680,
      ",'": 6681,
      "72": 6682,
      "how": 6683,
      "mond": 6684,
      "tic": 6685,
      "indu": 6686,
      "asp": 6687,
      "Ġlake": 6688,
      "Ġye": 6689,
      "ĠNative": 6690,
      "ĠNov": 6691,
      "Ġdisabilities": 6692,
      "Ġcomposed": 6693,
      "Ġcloud": 6694,
      "Ġcommunications": 6695,
      "Ġmarkets": 6696,
      "ĠChristians": 6697,
      "Ġpermission": 6698,
      "Ġcryst": 6699,
      "Ġcloser": 6700,
      ")|": 6701,
      "71": 6702,
      "word": 6703,
      "ena": 6704,
      "Ġlie": 6705,
      "ĠCamp": 6706,
      "ĠId": 6707,
      "Ġconclusion": 6708,
      "Ġ(\"": 6709,
      "estine": 6710,
      "Ġplate": 6711,
      "Ġcontrovers": 6712,
      "Ġresident": 6713,
      "ĠStar": 6714,
      "iana": 6715,
      "Ġpeoples": 6716,
      "Ġscan": 6717,
      "Ġordered": 6718,
      "ĠAlexander": 6719,
      "Ġlandscape": 6720,
      "69": 6721,
      "lv": 6722,
      "Ġtall": 6723,
      "Ġble": 6724,
      "Ġfill": 6725,
      "Ġmice": 6726,
      "Ġrein": 6727,
      "Ġrecept": 6728,
      "eters": 6729,
      "ĠMad": 6730,
      "ĠEp": 6731,
      "ĠEff": 6732,
      "ounded": 6733,
      "Ġproved": 6734,
      "Ġcentre": 6735,
      "Ġparam": 6736,
      "Ġseemed": 6737,
      "Ġmicros": 6738,
      "Ġwindow": 6739,
      "Ġfrequent": 6740,
      "Ġestimates": 6741,
      "Ġcoastal": 6742,
      "ythm": 6743,
      "Ġmathematics": 6744,
      "commun": 6745,
      "ĠColorado": 6746,
      "ĠAdministration": 6747,
      "Or": 6748,
      "cus": 6749,
      "gs": 6750,
      "then": 6751,
      "Ġtal": 6752,
      "Ġwants": 6753,
      "ĠBill": 6754,
      "Ġexchange": 6755,
      "Ġseeds": 6756,
      "Ġgrade": 6757,
      "Ġthoughts": 6758,
      "Ġapproved": 6759,
      "Ġguarant": 6760,
      "Ġsuffering": 6761,
      "ĠObama": 6762,
      "?âĢĿ": 6763,
      "ivery": 6764,
      "pd": 6765,
      "Ġov": 6766,
      "edu": 6767,
      "omer": 6768,
      "ĠTim": 6769,
      "ols": 6770,
      "ĠMS": 6771,
      "ĠDu": 6772,
      "Ġdischar": 6773,
      "ĠThrough": 6774,
      "ĠKar": 6775,
      "ishop": 6776,
      "ypes": 6777,
      "Ġremind": 6778,
      "Ġremark": 6779,
      "Ġdepartment": 6780,
      "Ġslavery": 6781,
      "Ġopposition": 6782,
      "Ġimplementation": 6783,
      "Ġmanufacturing": 6784,
      "Ġcooling": 6785,
      "Can": 6786,
      "car": 6787,
      "fortunately": 6788,
      "mail": 6789,
      "Ġinternet": 6790,
      "Ġthor": 6791,
      "Ġnose": 6792,
      "utch": 6793,
      "osion": 6794,
      "ĠDet": 6795,
      "agon": 6796,
      "ulty": 6797,
      "Ġcompounds": 6798,
      "ĠStep": 6799,
      "ĠVit": 6800,
      "ĠIndones": 6801,
      "Ġputting": 6802,
      "Ġfacility": 6803,
      "Ġwalking": 6804,
      "Ġcomparison": 6805,
      "Ġdedicated": 6806,
      "08": 6807,
      "OL": 6808,
      "zheimer": 6809,
      "Ġcognitive": 6810,
      "Ġmild": 6811,
      "Ġnob": 6812,
      "ĠHaw": 6813,
      "Ġsuitable": 6814,
      "ocial": 6815,
      "Ġundert": 6816,
      "Ġscar": 6817,
      "ĠAsian": 6818,
      "ĠSeattle": 6819,
      "Ġopposed": 6820,
      "Ġtruly": 6821,
      "ĠCoast": 6822,
      "Ġintegrated": 6823,
      "Ġtransportation": 6824,
      "Ġparallel": 6825,
      "Even": 6826,
      "Us": 6827,
      "Ġwhatever": 6828,
      "ivated": 6829,
      "ĠUt": 6830,
      "agle": 6831,
      "Ġcontained": 6832,
      "Ġpref": 6833,
      "Ġknows": 6834,
      "Ġentry": 6835,
      "udej": 6836,
      "Ġaccessible": 6837,
      "Ġlaid": 6838,
      "Ġdivor": 6839,
      "ometers": 6840,
      "ĠPhiladelphia": 6841,
      "IP": 6842,
      "pet": 6843,
      "herent": 6844,
      "erals": 6845,
      "Ġfixed": 6846,
      "ano": 6847,
      "omach": 6848,
      "ĠTop": 6849,
      "ĠSat": 6850,
      "eless": 6851,
      "umes": 6852,
      "Ġwasn": 6853,
      "ĠLiter": 6854,
      "Ġshift": 6855,
      "ĠJac": 6856,
      "acts": 6857,
      "plant": 6858,
      "Ġcompris": 6859,
      "Ġcolumn": 6860,
      "ventions": 6861,
      "Ġcurriculum": 6862,
      "ashion": 6863,
      "lishing": 6864,
      "Ġspacecraft": 6865,
      "Ġcreates": 6866,
      "Ġconsiderable": 6867,
      "Ġtalking": 6868,
      "Ġmagnetic": 6869,
      "igenous": 6870,
      "ĠOxford": 6871,
      "MS": 6872,
      "TS": 6873,
      "ais": 6874,
      "Ġtaste": 6875,
      "hered": 6876,
      "Ġbio": 6877,
      "stract": 6878,
      "Ġgay": 6879,
      "uts": 6880,
      "raq": 6881,
      "ĠRab": 6882,
      "Ġneut": 6883,
      "Ġrank": 6884,
      "ograp": 6885,
      "Ġclin": 6886,
      "Ġoverl": 6887,
      "Ġdefects": 6888,
      "Ġmeters": 6889,
      "Ġparas": 6890,
      "Ġbreeding": 6891,
      "ĠEncyclopedia": 6892,
      "Ġchest": 6893,
      "Ġlabel": 6894,
      "ochond": 6895,
      "ĠOhio": 6896,
      "iary": 6897,
      "enh": 6898,
      "orous": 6899,
      "alysis": 6900,
      "Ġbrand": 6901,
      "Ġdiverse": 6902,
      "etime": 6903,
      "Ġrig": 6904,
      "ipedia": 6905,
      "Ġwilling": 6906,
      "Ġdesalination": 6907,
      "ĠAlzheimer": 6908,
      "Ġminute": 6909,
      "ĠConst": 6910,
      "Ġterror": 6911,
      "Ġimproving": 6912,
      "Ġpainting": 6913,
      "print": 6914,
      "Ġdrawn": 6915,
      "Ġdependent": 6916,
      "Ġuniversal": 6917,
      "Ġarrange": 6918,
      "Ġconcluded": 6919,
      "Ġarchitecture": 6920,
      "Ġsatellite": 6921,
      "TA": 6922,
      "Ġtheore": 6923,
      "Ġcited": 6924,
      "Ġeld": 6925,
      "Ġbeat": 6926,
      "sey": 6927,
      "ĠSign": 6928,
      "ĠMudej": 6929,
      "Ġyield": 6930,
      "ĠRom": 6931,
      "orted": 6932,
      "Ġprev": 6933,
      "Ġproduces": 6934,
      "Ġobst": 6935,
      "Ġplanned": 6936,
      "ĠEngine": 6937,
      "rolled": 6938,
      "Ġisolated": 6939,
      "Ġsenior": 6940,
      "'.": 6941,
      "Of": 6942,
      "itual": 6943,
      "Ġfisher": 6944,
      "Ġmm": 6945,
      "urrent": 6946,
      "ĠSym": 6947,
      "ĠJon": 6948,
      "Ġprovince": 6949,
      "Ġwhereas": 6950,
      "Ġrepresentation": 6951,
      "Ġsumm": 6952,
      "Ġcreative": 6953,
      "Ġparticipation": 6954,
      "Ġthreatened": 6955,
      "Ġconsistent": 6956,
      "Ġaudio": 6957,
      "Ġsweet": 6958,
      "Ġphenomenon": 6959,
      "Ġnewspaper": 6960,
      "Ġmedicines": 6961,
      "',": 6962,
      "42": 6963,
      "but": 6964,
      "Ġol": 6965,
      "ato": 6966,
      "Ġpou": 6967,
      "asters": 6968,
      "Ġchlor": 6969,
      "Ġjump": 6970,
      "Ġtexts": 6971,
      "Ġevil": 6972,
      "Ġpreced": 6973,
      "tenance": 6974,
      "Ġseeing": 6975,
      "Ġstatements": 6976,
      "2012": 6977,
      "Ġessentially": 6978,
      "Ġdestruction": 6979,
      "ĠSupp": 6980,
      "Ġfulf": 6981,
      "Ġtribes": 6982,
      "ĠSurvey": 6983,
      "Ġexpanded": 6984,
      "Ġbranch": 6985,
      "Ġratio": 6986,
      "Ġearthquake": 6987,
      "Bl": 6988,
      "hyd": 6989,
      "iop": 6990,
      "vard": 6991,
      "zymes": 6992,
      "Ġcoc": 6993,
      "Ġpit": 6994,
      "Ġfed": 6995,
      "Ġmail": 6996,
      "ĠSk": 6997,
      "ĠBank": 6998,
      "Ġnotion": 6999,
      "Ġdistricts": 7000,
      "Ġseeking": 7001,
      "Ġveter": 7002,
      "ĠEarly": 7003,
      "ĠStudy": 7004,
      "Ġregarded": 7005,
      "Ġgreenhouse": 7006,
      "ĠKingdom": 7007,
      "Ġcapture": 7008,
      "ĠPrince": 7009,
      "Ġroutine": 7010,
      "Ġassigned": 7011,
      "Ġinstruments": 7012,
      "Ġsacr": 7013,
      "ixture": 7014,
      "iability": 7015,
      "rection": 7016,
      "Ġstone": 7017,
      "ady": 7018,
      "Ġproof": 7019,
      "ĠMah": 7020,
      "iller": 7021,
      "ĠâĢ¦": 7022,
      "Ġusage": 7023,
      "ĠThree": 7024,
      "Ġdesire": 7025,
      "Ġcommunicate": 7026,
      "Ġboys": 7027,
      "Ġcultures": 7028,
      "Ġturns": 7029,
      "Ġindicated": 7030,
      "Ġvisitors": 7031,
      "ulsion": 7032,
      "uilding": 7033,
      "ĠDisease": 7034,
      "Ġhazard": 7035,
      "Ġlaser": 7036,
      "mod": 7037,
      "rite": 7038,
      "zona": 7039,
      "Ġwaves": 7040,
      "Ġpounds": 7041,
      "Ġmixed": 7042,
      "Ġdrain": 7043,
      "Ġhunting": 7044,
      "ĠTit": 7045,
      "ĠAccess": 7046,
      "Ġstable": 7047,
      "operation": 7048,
      "ĠList": 7049,
      "Ġshif": 7050,
      "Ġ1930": 7051,
      "ressive": 7052,
      "Ġuniform": 7053,
      "ĠKnow": 7054,
      "Ġrow": 7055,
      "Ġdistur": 7056,
      "ĠWho": 7057,
      "Ġscientist": 7058,
      "Ġpassing": 7059,
      "ĠExpl": 7060,
      "Ġofficer": 7061,
      "Ġinteractive": 7062,
      "Ġmessages": 7063,
      "Ġturning": 7064,
      "Ġbegun": 7065,
      "Ġprincipal": 7066,
      "Ġfairly": 7067,
      "Ġcrucial": 7068,
      "Ġescape": 7069,
      "86": 7070,
      "Int": 7071,
      "gans": 7072,
      "ugg": 7073,
      "Ġtasks": 7074,
      "Ġbanks": 7075,
      "raham": 7076,
      "Ġstomach": 7077,
      "ĠMot": 7078,
      "istent": 7079,
      "Ġenzyme": 7080,
      "osexual": 7081,
      "Ġscript": 7082,
      "Ġpolar": 7083,
      "Ġcovers": 7084,
      "Ġgravity": 7085,
      "Ġended": 7086,
      "Ġlessons": 7087,
      "ippi": 7088,
      "Ġrecognition": 7089,
      "Ġsuffered": 7090,
      "Ġcomplicated": 7091,
      "Ġnitrogen": 7092,
      "Ġprofessionals": 7093,
      "Ġmoisture": 7094,
      "Ġadequate": 7095,
      "Comp": 7096,
      "host": 7097,
      "names": 7098,
      "Ġaer": 7099,
      "Ġske": 7100,
      "ester": 7101,
      "Ġpus": 7102,
      "Ġbomb": 7103,
      "sell": 7104,
      "ette": 7105,
      "urric": 7106,
      "Ġstre": 7107,
      "ĠDictionary": 7108,
      "reek": 7109,
      "Ġassume": 7110,
      "Ġtransition": 7111,
      "Ġextend": 7112,
      "Ġdelivery": 7113,
      "Ġcriteria": 7114,
      "Ġzero": 7115,
      "ĠMinister": 7116,
      "Ġbiggest": 7117,
      "ĠHeritage": 7118,
      "Ġimplications": 7119,
      "Ġcopyright": 7120,
      "ĠMississ": 7121,
      "Ġanxiety": 7122,
      "Ġweapons": 7123,
      "Ġsurfaces": 7124,
      "Go": 7125,
      "feed": 7126,
      "Ġcrow": 7127,
      "asive": 7128,
      "Ġgained": 7129,
      "Ġorb": 7130,
      "Ġplus": 7131,
      "erted": 7132,
      "Ġflag": 7133,
      "Ġrefuge": 7134,
      "theless": 7135,
      "Ġ65": 7136,
      "Ġpercentage": 7137,
      "Ġseconds": 7138,
      "Ġhappy": 7139,
      "Ġvolcan": 7140,
      "Ġ1969": 7141,
      "Ġkiller": 7142,
      "Ġoptical": 7143,
      "ĠÂ©": 7144,
      "Ġkingdom": 7145,
      "Ġvariable": 7146,
      "Ġvillages": 7147,
      "Ġfruits": 7148,
      "Ġmelan": 7149,
      "Ġcluster": 7150,
      "Ġsubstantial": 7151,
      "Ġscheme": 7152,
      "Ġfibers": 7153,
      "fish": 7154,
      "olt": 7155,
      "irie": 7156,
      "Ġalter": 7157,
      "osc": 7158,
      "Ġneur": 7159,
      "Ġinterior": 7160,
      "Ġtransf": 7161,
      "Ġcalling": 7162,
      "Ġrequest": 7163,
      "Ġconference": 7164,
      "ditionally": 7165,
      "Ġbusinesses": 7166,
      "Ġdiagnosed": 7167,
      "ĠAngel": 7168,
      "Ġelsewhere": 7169,
      "ĠMalays": 7170,
      "Ġinstructions": 7171,
      "ĠSupreme": 7172,
      "Qu": 7173,
      "Ġasteroid": 7174,
      "onents": 7175,
      "Ġongoing": 7176,
      "Ġstrict": 7177,
      "ĠBureau": 7178,
      "estion": 7179,
      "Ġspir": 7180,
      "ella": 7181,
      "Ġoutcome": 7182,
      "ĠChapter": 7183,
      "Ġconserv": 7184,
      "Ġpharm": 7185,
      "Ġsignals": 7186,
      "Ġcharged": 7187,
      "Ġsupporting": 7188,
      "Ġmatch": 7189,
      "Ġholds": 7190,
      "Ġmechanical": 7191,
      "nesota": 7192,
      "Ġcardi": 7193,
      "top": 7194,
      "onia": 7195,
      "Ġinert": 7196,
      "ĠCross": 7197,
      "Ġstages": 7198,
      "elve": 7199,
      "Ġconven": 7200,
      "iah": 7201,
      "Ġkit": 7202,
      "Ġwheat": 7203,
      "Ġincl": 7204,
      "Ġresolution": 7205,
      "Ġroyal": 7206,
      "Ġdistributed": 7207,
      "Ġhandle": 7208,
      "ĠScot": 7209,
      "Ġstrongly": 7210,
      "Ġargue": 7211,
      "ĠEdward": 7212,
      "Ġattempts": 7213,
      "ĠSuper": 7214,
      "Ġbreathing": 7215,
      "Because": 7216,
      "aired": 7217,
      "alm": 7218,
      "ĠCy": 7219,
      "ĠIraq": 7220,
      "ĠPolic": 7221,
      "ĠPlease": 7222,
      "ĠBul": 7223,
      "abul": 7224,
      "achers": 7225,
      "Ġspok": 7226,
      "ĠOk": 7227,
      "fficking": 7228,
      "Ġintense": 7229,
      "Ġdisk": 7230,
      "ĠThough": 7231,
      "eping": 7232,
      "Ġoutbre": 7233,
      "Ġthereby": 7234,
      "Ġinterface": 7235,
      "Ġfeeding": 7236,
      "Ġdownload": 7237,
      "Ġslave": 7238,
      "Ġ150": 7239,
      "Ġtrip": 7240,
      "including": 7241,
      "Ġreceiving": 7242,
      "ĠBooks": 7243,
      "Ġsettlement": 7244,
      "Ġviruses": 7245,
      "ĠEgyptian": 7246,
      "Ġlegislation": 7247,
      "Ġexperimental": 7248,
      "Ġcooking": 7249,
      "Ġcategories": 7250,
      "Ġbehaviors": 7251,
      "Ed": 7252,
      "Figure": 7253,
      "IM": 7254,
      "John": 7255,
      "li": 7256,
      "making": 7257,
      "uber": 7258,
      "inates": 7259,
      "Ġcodes": 7260,
      "itarian": 7261,
      "ani": 7262,
      "Ġmaps": 7263,
      "Ġmales": 7264,
      "acing": 7265,
      "ĠGar": 7266,
      "Ġteen": 7267,
      "ails": 7268,
      "Ġreliable": 7269,
      "Ġexped": 7270,
      "Ġedge": 7271,
      "Ġestimate": 7272,
      "Ġvalid": 7273,
      "Ġequally": 7274,
      "roduction": 7275,
      "Ġprophe": 7276,
      "Ġdrawing": 7277,
      "fall": 7278,
      "uels": 7279,
      "Ġbeds": 7280,
      "ĠSar": 7281,
      "Ġconqu": 7282,
      "ĠMake": 7283,
      "riers": 7284,
      "Ġritual": 7285,
      "rous": 7286,
      "Ġplays": 7287,
      "angered": 7288,
      "ounter": 7289,
      "ographical": 7290,
      "aneous": 7291,
      "Ġseparated": 7292,
      "liest": 7293,
      "chez": 7294,
      "Ġcovering": 7295,
      "Ġemotions": 7296,
      "ĠMaryland": 7297,
      "Ġinterpretation": 7298,
      "ĠLaboratory": 7299,
      "Ġcommitment": 7300,
      "Ġconfirmed": 7301,
      "98": 7302,
      "Ref": 7303,
      "Ġbread": 7304,
      "Ġgy": 7305,
      "Ġgiant": 7306,
      "Ġstead": 7307,
      "ĠBig": 7308,
      "abits": 7309,
      "ivered": 7310,
      "ptic": 7311,
      "Ġreserved": 7312,
      "Ġevident": 7313,
      "Ġadds": 7314,
      "rowing": 7315,
      "hesis": 7316,
      "Ġmodified": 7317,
      "Ġhealthcare": 7318,
      "Ġartists": 7319,
      "Ġplane": 7320,
      "Ġplanets": 7321,
      "azing": 7322,
      "Ġindustries": 7323,
      "Ġirrigation": 7324,
      "Ġconcentrations": 7325,
      "Ġtissues": 7326,
      "Ġaccuracy": 7327,
      "Ġemphasis": 7328,
      "Ġhormone": 7329,
      "Ġjourney": 7330,
      "ĠMississippi": 7331,
      "lation": 7332,
      "Ġfet": 7333,
      "Ġlots": 7334,
      "Ġlymph": 7335,
      "Ġbeings": 7336,
      "ĠSil": 7337,
      "Ġstroke": 7338,
      "ĠHave": 7339,
      "ĠEqu": 7340,
      "ĠEastern": 7341,
      "ruption": 7342,
      "itely": 7343,
      "Ġtrained": 7344,
      "Ġ37": 7345,
      "Ġrose": 7346,
      "Ġflo": 7347,
      "Ġexamination": 7348,
      "Ġhighlight": 7349,
      "century": 7350,
      "Ġparad": 7351,
      "ĠAdv": 7352,
      "Ġdemonstrate": 7353,
      "Ġevaluation": 7354,
      "ĠArizona": 7355,
      "Ġinflammation": 7356,
      "Ġillegal": 7357,
      "AA": 7358,
      "BI": 7359,
      "DT": 7360,
      "Pre": 7361,
      "QL": 7362,
      "bour": 7363,
      "real": 7364,
      "Ġsod": 7365,
      "Ġmercury": 7366,
      "idance": 7367,
      "Ġforget": 7368,
      "Ġpartner": 7369,
      "Ġtract": 7370,
      "Ġrelief": 7371,
      "Ġ55": 7372,
      "Ġsheet": 7373,
      "Ġfinds": 7374,
      "Ġfacing": 7375,
      "2009": 7376,
      "Ġheads": 7377,
      "aimed": 7378,
      "Ġflower": 7379,
      "Ġmountains": 7380,
      "Ġpurchase": 7381,
      "ĠMicro": 7382,
      "ĠForest": 7383,
      "Ġappointed": 7384,
      "Ġtrouble": 7385,
      "Ġcamera": 7386,
      "GO": 7387,
      "reated": 7388,
      "Ġsession": 7389,
      "Ġnurs": 7390,
      "ading": 7391,
      "Ġoral": 7392,
      "ĠEPA": 7393,
      "ĠForm": 7394,
      "ĠFamily": 7395,
      "Ġran": 7396,
      "Ġshop": 7397,
      "aked": 7398,
      "phone": 7399,
      "Ġ38": 7400,
      "Ġregime": 7401,
      "Ġservers": 7402,
      "Ġstarts": 7403,
      "Ġfourth": 7404,
      "Ġconnections": 7405,
      "Ġdamaged": 7406,
      "Ġessay": 7407,
      "ĠMinnesota": 7408,
      "Ġencouraged": 7409,
      "Ġbabies": 7410,
      "Ġexception": 7411,
      "ĠPMID": 7412,
      "Ġathlet": 7413,
      "Comm": 7414,
      "iations": 7415,
      "non": 7416,
      "Ġcav": 7417,
      "Ġholid": 7418,
      "ĠAS": 7419,
      "Ġexclus": 7420,
      "ĠFace": 7421,
      "Ġdose": 7422,
      "Ġourselves": 7423,
      "ĠArts": 7424,
      "Ġmaintenance": 7425,
      "Ġdescend": 7426,
      "Ġpresentation": 7427,
      "elfare": 7428,
      "Ġoptim": 7429,
      "Ġbringing": 7430,
      "ĠObject": 7431,
      "ĠSenate": 7432,
      "ĠWindows": 7433,
      "Ġsubsequent": 7434,
      "Not": 7435,
      "bel": 7436,
      "fts": 7437,
      "gical": 7438,
      "Ġ^": 7439,
      "inally": 7440,
      "Ġhidden": 7441,
      "ĠWhere": 7442,
      "ĠLanguage": 7443,
      "Ġusual": 7444,
      "ooking": 7445,
      "Ġsmoke": 7446,
      "Ġinstalled": 7447,
      "Ġpatent": 7448,
      "Ġwrites": 7449,
      "ĠAdd": 7450,
      "Ġfarms": 7451,
      "ĠJohnson": 7452,
      "Ġchoices": 7453,
      "ĠOrganization": 7454,
      "].": 7455,
      "Ġtight": 7456,
      "Ġtropical": 7457,
      "Ġblow": 7458,
      "ĠMain": 7459,
      "ĠPo": 7460,
      "ĠHoly": 7461,
      "Ġhero": 7462,
      "ĠFund": 7463,
      "arts": 7464,
      "ĠLin": 7465,
      "Ġsharp": 7466,
      "anges": 7467,
      "Ġrecover": 7468,
      "Ġunderlying": 7469,
      "Ġaccident": 7470,
      "iously": 7471,
      "Ġ1880": 7472,
      "Ġdistant": 7473,
      "Ġguard": 7474,
      "Ġcareful": 7475,
      "arents": 7476,
      "Ġprominent": 7477,
      "Ġfeelings": 7478,
      "Ġmagnitude": 7479,
      "ĠTestament": 7480,
      "iblical": 7481,
      "Ġrenewable": 7482,
      "Ġchicken": 7483,
      "unicipal": 7484,
      "ĠGeorgia": 7485,
      "Le": 7486,
      "la": 7487,
      "Ġlin": 7488,
      "oler": 7489,
      "adow": 7490,
      "ĠPoint": 7491,
      "ĠFDA": 7492,
      "ĠOl": 7493,
      "apse": 7494,
      "avor": 7495,
      "ĠVis": 7496,
      "Ġfever": 7497,
      "ollowing": 7498,
      "Ġartificial": 7499,
      "Ġ1991": 7500,
      "Ġdirections": 7501,
      "Ġrealize": 7502,
      "Ġliterary": 7503,
      "ĠVolume": 7504,
      "Ġprinted": 7505,
      "Ġatmospheric": 7506,
      "Ġharmful": 7507,
      "Ġcorner": 7508,
      "Ġmissing": 7509,
      "Ġtraditions": 7510,
      "ĠAuthor": 7511,
      "gers": 7512,
      "Ġahead": 7513,
      "hea": 7514,
      "Ġcab": 7515,
      "Ġthr": 7516,
      "ĠCle": 7517,
      "ĠHill": 7518,
      "Ġsup": 7519,
      "ĠDen": 7520,
      "ĠRh": 7521,
      "Ġchair": 7522,
      "Ġring": 7523,
      "ĠLib": 7524,
      "ogether": 7525,
      "Ġenorm": 7526,
      "ĠJeff": 7527,
      "Ġunw": 7528,
      "ĠKansas": 7529,
      "ishment": 7530,
      "ĠVen": 7531,
      "Ġrocks": 7532,
      "Ġproven": 7533,
      "Ġmedication": 7534,
      "Ġpositions": 7535,
      "ĠWarren": 7536,
      "Ġasking": 7537,
      "Ġinfluenced": 7538,
      "Ġkilling": 7539,
      "ĠAmong": 7540,
      "Ġsubstances": 7541,
      "Ġordinary": 7542,
      "iosity": 7543,
      "Ġmosquit": 7544,
      "09": 7545,
      "App": 7546,
      "Ear": 7547,
      "Read": 7548,
      "cin": 7549,
      "rd": 7550,
      "zer": 7551,
      "Ġ..": 7552,
      "hether": 7553,
      "itivity": 7554,
      "Ġtomat": 7555,
      "ĠAh": 7556,
      "ĠMen": 7557,
      "ĠPC": 7558,
      "ĠPed": 7559,
      "Ġcontribution": 7560,
      "Ġoutcomes": 7561,
      "Ġbless": 7562,
      "Ġpreserve": 7563,
      "Ġhumidity": 7564,
      "Ġknowing": 7565,
      "venile": 7566,
      "Ġdescript": 7567,
      "Ġtempor": 7568,
      "ĠBefore": 7569,
      "Ġworksh": 7570,
      "Ġsilver": 7571,
      "ĠServices": 7572,
      "ĠCommunity": 7573,
      "Ġpanel": 7574,
      "Ġdropped": 7575,
      "Ġbehaviour": 7576,
      "Ġupdated": 7577,
      "ĠSometimes": 7578,
      "%)": 7579,
      "FS": 7580,
      "National": 7581,
      "PI": 7582,
      "just": 7583,
      "Ġcaught": 7584,
      "Ġbot": 7585,
      "Ġbatt": 7586,
      "Ġfo": 7587,
      "Ġfro": 7588,
      "rove": 7589,
      "Ġgap": 7590,
      "Ġseat": 7591,
      "Ġarmed": 7592,
      "ologic": 7593,
      "Ġacknow": 7594,
      "Ġtechnological": 7595,
      "ĠSpring": 7596,
      "Ġgluc": 7597,
      "Ġhappening": 7598,
      "Ġchemistry": 7599,
      "Ġdriven": 7600,
      "ourage": 7601,
      "ĠMichigan": 7602,
      "About": 7603,
      "Ġunusual": 7604,
      "63": 7605,
      "Pl": 7606,
      "RA": 7607,
      "itals": 7608,
      "Ġnode": 7609,
      "Ġislands": 7610,
      "ĠCreat": 7611,
      "ulpt": 7612,
      "ĠPage": 7613,
      "eren": 7614,
      "ĠNaz": 7615,
      "ĠLow": 7616,
      "Ġcancers": 7617,
      "apor": 7618,
      "soft": 7619,
      "riting": 7620,
      "Ġblocks": 7621,
      "Ġsmart": 7622,
      "Ġreader": 7623,
      "Ġboat": 7624,
      "Ġbelieves": 7625,
      "Ġ1988": 7626,
      "Ġprotective": 7627,
      "Ġabsence": 7628,
      "prof": 7629,
      "Ġwatershed": 7630,
      "ĠConference": 7631,
      "Ġvulnerable": 7632,
      "59": 7633,
      "68": 7634,
      "Mar": 7635,
      "Sc": 7636,
      "pass": 7637,
      "Ġvel": 7638,
      "itative": 7639,
      "itler": 7640,
      "Ġboy": 7641,
      "imm": 7642,
      "ĠHor": 7643,
      "Ġvan": 7644,
      "Ġships": 7645,
      "Ġenzymes": 7646,
      "ĠObs": 7647,
      "ateral": 7648,
      "Ġpreval": 7649,
      "Ġrab": 7650,
      "Ġpointed": 7651,
      "Ġcorrel": 7652,
      "Ġlowest": 7653,
      "Ġproportion": 7654,
      "2008": 7655,
      "Ġconsumer": 7656,
      "Ġsoul": 7657,
      "ĠProtection": 7658,
      "Ġspectrum": 7659,
      "Ġintelligence": 7660,
      "ĠDivision": 7661,
      "Per": 7662,
      "hav": 7663,
      "rity": 7664,
      "ĠÎ": 7665,
      "Ġinqu": 7666,
      "Ġdance": 7667,
      "ĠAcc": 7668,
      "ami": 7669,
      "Ġvoc": 7670,
      "ĠDespite": 7671,
      "ocent": 7672,
      "Ġsport": 7673,
      "Ġdism": 7674,
      "Ġdisaster": 7675,
      "Ġperception": 7676,
      "Ġaggress": 7677,
      "Ġ48": 7678,
      "Ġpresents": 7679,
      "Ġvisited": 7680,
      "Ġadvis": 7681,
      "Ġwarning": 7682,
      "sylv": 7683,
      "ĠMedia": 7684,
      "Ġdelivered": 7685,
      "Ġfunds": 7686,
      "regon": 7687,
      "Ġmothers": 7688,
      "ĠCurrent": 7689,
      "Ġinitiative": 7690,
      "ĠHistorical": 7691,
      "Ġthorough": 7692,
      "58": 7693,
      "OU": 7694,
      "Your": 7695,
      "ugh": 7696,
      "oul": 7697,
      "ouds": 7698,
      "Ġconj": 7699,
      "ĠBal": 7700,
      "ĠHy": 7701,
      "Ġshock": 7702,
      "Ġresc": 7703,
      "Ġpoem": 7704,
      "Ġtransp": 7705,
      "Ġcarb": 7706,
      "ĠClimate": 7707,
      "Ġfinished": 7708,
      "Ġstopped": 7709,
      "Ġmachines": 7710,
      "Ġvirtual": 7711,
      "Ġlicens": 7712,
      "Ġroughly": 7713,
      "LL": 7714,
      "gence": 7715,
      "Å¿": 7716,
      "iture": 7717,
      "Ġdates": 7718,
      "Ġnodes": 7719,
      "Ġlists": 7720,
      "Ġlunch": 7721,
      "ĠAge": 7722,
      "ĠSund": 7723,
      "adm": 7724,
      "Ġwithd": 7725,
      "ĠHo": 7726,
      "ĠHay": 7727,
      "essions": 7728,
      "ĠFe": 7729,
      "aph": 7730,
      "wealth": 7731,
      "Ġsched": 7732,
      "Ġflour": 7733,
      "Ġearn": 7734,
      "uese": 7735,
      "amps": 7736,
      "Ġidentification": 7737,
      "ucky": 7738,
      "Ġmaintained": 7739,
      "Ġsettled": 7740,
      "Ġorders": 7741,
      "Ġaims": 7742,
      "Ġuniversities": 7743,
      "ĠCambridge": 7744,
      "Ġphrase": 7745,
      "Ġenforcement": 7746,
      "Ġaccompan": 7747,
      "Ġlecture": 7748,
      "CE": 7749,
      "oom": 7750,
      "isk": 7751,
      "Ġfashion": 7752,
      "Ġrely": 7753,
      "anda": 7754,
      "ĠLee": 7755,
      "assination": 7756,
      "orses": 7757,
      "Ġrepair": 7758,
      "Ġsupplements": 7759,
      "ranes": 7760,
      "Ġartist": 7761,
      "ĠIndust": 7762,
      "Ġconfirm": 7763,
      "Ġremoval": 7764,
      "ĠPrevention": 7765,
      "Ġdealing": 7766,
      "Ġtumors": 7767,
      "Ġvirtually": 7768,
      "Ġtoxicity": 7769,
      "ĠKorean": 7770,
      "Ġevaluate": 7771,
      "Ġmanifest": 7772,
      "night": 7773,
      "only": 7774,
      "ouri": 7775,
      "rav": 7776,
      "ĠSant": 7777,
      "iratory": 7778,
      "amination": 7779,
      "Ġdeeper": 7780,
      "Ġcham": 7781,
      "Ġleaf": 7782,
      "Ġspaces": 7783,
      "ardo": 7784,
      "ustain": 7785,
      "izer": 7786,
      "ĠChange": 7787,
      "ĠWeek": 7788,
      "Ġtreating": 7789,
      "ĠSpirit": 7790,
      "class": 7791,
      "Ġoccurring": 7792,
      "Ġresearcher": 7793,
      "Ġcharacterized": 7794,
      "Ġgrounds": 7795,
      "Ġimprovement": 7796,
      "Ġarchae": 7797,
      "Ġecological": 7798,
      "Ġaltitude": 7799,
      "Ġautomatically": 7800,
      "Ġinnovation": 7801,
      "ĠAND": 7802,
      "Ġclothing": 7803,
      "Ġpesticides": 7804,
      "Every": 7805,
      "RS": 7806,
      "Today": 7807,
      "yer": 7808,
      "Ġ×": 7809,
      "Ġthou": 7810,
      "uled": 7811,
      "aded": 7812,
      "ĠBab": 7813,
      "ĠRock": 7814,
      "ells": 7815,
      "asts": 7816,
      "pling": 7817,
      "Ġplain": 7818,
      "Ġcontents": 7819,
      "Ġarray": 7820,
      "ĠStation": 7821,
      "Ġouter": 7822,
      "Ġcoff": 7823,
      "ĠIslands": 7824,
      "Ġcalories": 7825,
      "Ġaddressed": 7826,
      "ibraries": 7827,
      "Ġheavily": 7828,
      "Ġhabitats": 7829,
      "Ġdanger": 7830,
      "Ġexecutive": 7831,
      "Ġlungs": 7832,
      "People": 7833,
      "sylvania": 7834,
      "07": 7835,
      "chen": 7836,
      "Ġcats": 7837,
      "esides": 7838,
      "isd": 7839,
      "Ġmur": 7840,
      "Ġmac": 7841,
      "ĠSir": 7842,
      "Ġorgans": 7843,
      "usiness": 7844,
      "ums": 7845,
      "ĠFather": 7846,
      "ĠGre": 7847,
      "Ġcompare": 7848,
      "chnology": 7849,
      "Ġforming": 7850,
      "Ġdemocracy": 7851,
      "Ġeleph": 7852,
      "Ġpreventing": 7853,
      "Ġbeneficial": 7854,
      "Ġrepresentatives": 7855,
      "Ġfalling": 7856,
      "Ġcopies": 7857,
      "Ġcutting": 7858,
      "Ġthreats": 7859,
      "Ġfavorite": 7860,
      "senic": 7861,
      "CA": 7862,
      "upt": 7863,
      "ye": 7864,
      "requ": 7865,
      "reland": 7866,
      "orters": 7867,
      "Ġpair": 7868,
      "Ġmg": 7869,
      "rooms": 7870,
      "Ġhat": 7871,
      "sets": 7872,
      "ĠSolar": 7873,
      "ĠCare": 7874,
      "Ġstores": 7875,
      "Ġspoke": 7876,
      "Ġroads": 7877,
      "Ġearliest": 7878,
      "Ġinsulin": 7879,
      "Ġconsidering": 7880,
      "ĠColl": 7881,
      "Ġviewed": 7882,
      "Ġassociate": 7883,
      "Ġsunlight": 7884,
      "Ġdomain": 7885,
      "Ġtherapies": 7886,
      "Ġdebt": 7887,
      "ĠMoreover": 7888,
      "ĠTrade": 7889,
      "Ġbrings": 7890,
      "Ġinformed": 7891,
      "Ġsplit": 7892,
      "Ġorientation": 7893,
      "Once": 7894,
      "bra": 7895,
      "pus": 7896,
      "Ã¤": 7897,
      "Ġcattle": 7898,
      "Ġmira": 7899,
      "Ġdiver": 7900,
      "Ġprosec": 7901,
      "Ġconclus": 7902,
      "ĠHunting": 7903,
      "asty": 7904,
      "Ġplenty": 7905,
      "obile": 7906,
      "Ġrelax": 7907,
      "Ġexamined": 7908,
      "Ġeffectiveness": 7909,
      "Ġcomplement": 7910,
      "Ġexplicit": 7911,
      "Ġguidance": 7912,
      "Ġpromise": 7913,
      "Ġmitochond": 7914,
      "ĠIranian": 7915,
      "Ġdramatic": 7916,
      "Ġnarrative": 7917,
      "ĠSecretary": 7918,
      "wan": 7919,
      "Ġpione": 7920,
      "Ġbath": 7921,
      "Ġdys": 7922,
      "Ġholes": 7923,
      "iments": 7924,
      "ĠBon": 7925,
      "ĠResp": 7926,
      "ĠField": 7927,
      "ĠNon": 7928,
      "ĠLess": 7929,
      "ogl": 7930,
      "ĠOregon": 7931,
      "action": 7932,
      "Ġclock": 7933,
      "eps": 7934,
      "ube": 7935,
      "Ġinfant": 7936,
      "anger": 7937,
      "neys": 7938,
      "ĠAssembly": 7939,
      "Ġsciences": 7940,
      "Ġskill": 7941,
      "ĠConvention": 7942,
      "Ġfaced": 7943,
      "Ġdebris": 7944,
      "Ġrespectively": 7945,
      "Ġconcrete": 7946,
      "Ġaudience": 7947,
      "Ġsustainability": 7948,
      "Ġcontributed": 7949,
      "Ġscreening": 7950,
      "Ġcoordinate": 7951,
      "unteer": 7952,
      "Ġmammals": 7953,
      "ĠConnect": 7954,
      "Ġphotographs": 7955,
      "ĠNatchez": 7956,
      "ĠPolicy": 7957,
      "foot": 7958,
      "athered": 7959,
      "Ġcosm": 7960,
      "arks": 7961,
      "ĠTri": 7962,
      "urning": 7963,
      "elesc": 7964,
      "ĠMove": 7965,
      "ĠHim": 7966,
      "ĠLo": 7967,
      "ogs": 7968,
      "ĠJr": 7969,
      "Ġcompound": 7970,
      "Ġclient": 7971,
      "Ġmaybe": 7972,
      "ritis": 7973,
      "Ġracial": 7974,
      "Ġspecified": 7975,
      "Ġentit": 7976,
      "Ġserving": 7977,
      "Ġtemporary": 7978,
      "ĠZion": 7979,
      "ĠOnline": 7980,
      "Ġconsideration": 7981,
      "Ġversions": 7982,
      "Ġasthma": 7983,
      "Ġsuspect": 7984,
      "ĠSimilar": 7985,
      "ĠConfed": 7986,
      "Ġtelevision": 7987,
      "Ġcrack": 7988,
      "Ġbeliefs": 7989,
      "Ġcategory": 7990,
      "Ġnutrients": 7991,
      "ĠFacebook": 7992,
      "EO": 7993,
      "pes": 7994,
      "Â®": 7995,
      "Ġtape": 7996,
      "Ġment": 7997,
      "Ġmine": 7998,
      "asant": 7999,
      "ceans": 8000,
      "ĠAT": 8001,
      "ĠClick": 8002,
      "ĠIreland": 8003,
      "ĠDiff": 8004,
      "iva": 8005,
      "Ġrational": 8006,
      "allow": 8007,
      "Ġworst": 8008,
      "Ġworship": 8009,
      "Ġagent": 8010,
      "Ġnewly": 8011,
      "plete": 8012,
      "Ġproviders": 8013,
      "Ġdesigns": 8014,
      "Ġdemands": 8015,
      "oids": 8016,
      "ĠCentre": 8017,
      "Ġexisted": 8018,
      "Ġmoves": 8019,
      "ĠRepresent": 8020,
      "Ġexercises": 8021,
      "Ġimplemented": 8022,
      "ĠAngola": 8023,
      "copation": 8024,
      "Ġreproductive": 8025,
      "Ġapparently": 8026,
      "Ġloved": 8027,
      "%.": 8028,
      "66": 8029,
      "aith": 8030,
      "sub": 8031,
      "Ġhabits": 8032,
      "enter": 8033,
      "ilation": 8034,
      "Ġnerve": 8035,
      "ĠTenn": 8036,
      "otion": 8037,
      "ĠMethod": 8038,
      "Ġanterior": 8039,
      "Ġevolved": 8040,
      "Ġroots": 8041,
      "Ġobesity": 8042,
      "erty": 8043,
      "Ġpron": 8044,
      "Ġevening": 8045,
      "Ġvariation": 8046,
      "2013": 8047,
      "Ġperforming": 8048,
      "Ġradical": 8049,
      "ĠOrig": 8050,
      "Ġrepresentative": 8051,
      "Ġfunded": 8052,
      "Ġinitially": 8053,
      "Ġgradually": 8054,
      "Ġrecommendations": 8055,
      "Ġranging": 8056,
      "Ġtube": 8057,
      "ĠCambod": 8058,
      "Ġpoetry": 8059,
      "otherapy": 8060,
      "Che": 8061,
      "made": 8062,
      "rong": 8063,
      "onym": 8064,
      "eness": 8065,
      "child": 8066,
      "Ġstick": 8067,
      "ĠBattle": 8068,
      "Ġheating": 8069,
      "ĠDig": 8070,
      "ogy": 8071,
      "Ġ34": 8072,
      "Ġtwelve": 8073,
      "Ġsculpt": 8074,
      "Ġsimult": 8075,
      "Ġobservation": 8076,
      "Ġfalls": 8077,
      "Ġsteel": 8078,
      "ĠNeu": 8079,
      "ĠPennsylvania": 8080,
      "ĠDarwin": 8081,
      "ao": 8082,
      "dad": 8083,
      "mes": 8084,
      "press": 8085,
      "you": 8086,
      "Ġid": 8087,
      "Ġton": 8088,
      "erly": 8089,
      "isdom": 8090,
      "oric": 8091,
      "Ġpond": 8092,
      "Ġbiodiversity": 8093,
      "lymp": 8094,
      "ĠSection": 8095,
      "ĠCA": 8096,
      "Ġasc": 8097,
      "this": 8098,
      "Ġsuit": 8099,
      "ĠFil": 8100,
      "Ġanywhere": 8101,
      "Ġmining": 8102,
      "ĠSpain": 8103,
      "Ġhardware": 8104,
      "Ġconcerning": 8105,
      "Ġengineers": 8106,
      "ĠImm": 8107,
      "ĠSystems": 8108,
      "Ġimagine": 8109,
      "Ġbeauty": 8110,
      "ĠMiller": 8111,
      "ĠJustice": 8112,
      "species": 8113,
      "ĠEconomic": 8114,
      "ĠStandard": 8115,
      "ĠDaniel": 8116,
      "Ġerrors": 8117,
      "Ġglucose": 8118,
      "Let": 8119,
      "iological": 8120,
      "power": 8121,
      "yr": 8122,
      "Ġbull": 8123,
      "anz": 8124,
      "ician": 8125,
      "icular": 8126,
      "Ġtooth": 8127,
      "Ġhole": 8128,
      "Ġreaching": 8129,
      "Ġgent": 8130,
      "otal": 8131,
      "amins": 8132,
      "ĠPur": 8133,
      "Ġvac": 8134,
      "Ġspending": 8135,
      "uality": 8136,
      "Ġunem": 8137,
      "Ġinferior": 8138,
      "ailed": 8139,
      "onday": 8140,
      "Ġmeasuring": 8141,
      "ĠYoung": 8142,
      "ĠLeon": 8143,
      "Ġcrimes": 8144,
      "ĠFinally": 8145,
      "Ġperceived": 8146,
      "usalem": 8147,
      "92": 8148,
      "DS": 8149,
      "fe": 8150,
      "eries": 8151,
      "aton": 8152,
      "Ġcash": 8153,
      "Ġmeth": 8154,
      "ounce": 8155,
      "oline": 8156,
      "Ġgro": 8157,
      "Ġgases": 8158,
      "imic": 8159,
      "Ġforg": 8160,
      "iger": 8161,
      "iration": 8162,
      "Ġstake": 8163,
      "ĠMid": 8164,
      "about": 8165,
      "Ġhence": 8166,
      "quar": 8167,
      "ĠFigure": 8168,
      "ĠGet": 8169,
      "ghan": 8170,
      "Ġraw": 8171,
      "ieth": 8172,
      "Ġ600": 8173,
      "Ġreporting": 8174,
      "Ġposterior": 8175,
      "Ġstructural": 8176,
      "being": 8177,
      "Ġlosses": 8178,
      "Ġreviewed": 8179,
      "Ġmigration": 8180,
      "Ġbranches": 8181,
      "ĠOpen": 8182,
      "Ġhorizont": 8183,
      "ĠPortuguese": 8184,
      "Cons": 8185,
      "def": 8186,
      "hus": 8187,
      "Ġcod": 8188,
      "Ġthroat": 8189,
      "ĠTom": 8190,
      "idal": 8191,
      "otype": 8192,
      "ĠSS": 8193,
      "aying": 8194,
      "ĠMach": 8195,
      "ĠHand": 8196,
      "estyle": 8197,
      "rix": 8198,
      "Ġspr": 8199,
      "ĠInit": 8200,
      "agan": 8201,
      "Ġmeal": 8202,
      "Ġcommands": 8203,
      "Ġblank": 8204,
      "ĠYear": 8205,
      "Ġphosph": 8206,
      "Ġdefault": 8207,
      "Ġoccas": 8208,
      "Ġsolve": 8209,
      "Ġrestric": 8210,
      "Ġfunctional": 8211,
      "cientists": 8212,
      "Ġreveal": 8213,
      "Ġangle": 8214,
      "Ġconstantly": 8215,
      "Ġinhabit": 8216,
      "Ġsatisf": 8217,
      "Ġbattery": 8218,
      "Ġhypothesis": 8219,
      "ĠJacob": 8220,
      "abulary": 8221,
      "sper": 8222,
      "Ġdensity": 8223,
      "Ġthirty": 8224,
      "omed": 8225,
      "rays": 8226,
      "Ġconce": 8227,
      "abric": 8228,
      "ĠHitler": 8229,
      "Ġhealing": 8230,
      "ĠDown": 8231,
      "antic": 8232,
      "ĠLast": 8233,
      "Ġenlar": 8234,
      "ĠJack": 8235,
      "Ġthanks": 8236,
      "Ġtheme": 8237,
      "Ġraising": 8238,
      "Ġoffering": 8239,
      "archy": 8240,
      "Ġsmoking": 8241,
      "Ġinstances": 8242,
      "Ġextension": 8243,
      "Ġgray": 8244,
      "Ġvisits": 8245,
      "Ġmeteor": 8246,
      "Ġadvances": 8247,
      "Ġ1986": 8248,
      "2006": 8249,
      "Ġ1979": 8250,
      "Ġmagazine": 8251,
      "Ġdifficulties": 8252,
      "Ġstatistics": 8253,
      "Ġdominant": 8254,
      "Ġverb": 8255,
      "Ġheaven": 8256,
      "ĠHarvard": 8257,
      "Ġpsychological": 8258,
      "Ġpackage": 8259,
      "Ġtargets": 8260,
      "Ġvoting": 8261,
      "ĠMissouri": 8262,
      "Ġminority": 8263,
      "Ġdynamic": 8264,
      "Ġstreets": 8265,
      "56": 8266,
      "DE": 8267,
      "Part": 8268,
      "Sub": 8269,
      "bird": 8270,
      "pos": 8271,
      "yles": 8272,
      "encing": 8273,
      "Ġflying": 8274,
      "icity": 8275,
      "Ġholy": 8276,
      "ĠCre": 8277,
      "ĠCop": 8278,
      "adder": 8279,
      "Ġwhale": 8280,
      "ifer": 8281,
      "ĠPen": 8282,
      "istical": 8283,
      "ĠLos": 8284,
      "ghdad": 8285,
      "ostic": 8286,
      "Ġinfect": 8287,
      "Ġ44": 8288,
      "Ġflash": 8289,
      "ĠAsk": 8290,
      "vernment": 8291,
      "Ġdirectory": 8292,
      "Ġstronger": 8293,
      "Ġdegrad": 8294,
      "Ġcomplications": 8295,
      "ĠAntar": 8296,
      "ĠGovernor": 8297,
      "Ġcustomers": 8298,
      "Ġempire": 8299,
      "Ġbonds": 8300,
      "Ġcollaboration": 8301,
      "Ġsaved": 8302,
      "Ġtherm": 8303,
      "Ġjurisd": 8304,
      "Ġunlikely": 8305,
      "ĠAgriculture": 8306,
      "Ġneurons": 8307,
      "Am": 8308,
      "CI": 8309,
      "Click": 8310,
      "],": 8311,
      "sue": 8312,
      "Ã§": 8313,
      "icy": 8314,
      "Ġhorses": 8315,
      "ĠTay": 8316,
      "olph": 8317,
      "Ġ120": 8318,
      "Ġorbit": 8319,
      "thod": 8320,
      "ĠHung": 8321,
      "acent": 8322,
      "ĠEst": 8323,
      "Ġrice": 8324,
      "ĠGall": 8325,
      "uster": 8326,
      "Ġcomprom": 8327,
      "Ġindigenous": 8328,
      "Ġreferences": 8329,
      "Ġmyst": 8330,
      "Ġminerals": 8331,
      "Ġmarks": 8332,
      "Ġdevast": 8333,
      "Ġloan": 8334,
      "Ġdetermination": 8335,
      "Ġswitch": 8336,
      "Ġflows": 8337,
      "Ġpsychology": 8338,
      "ĠMcC": 8339,
      "Ġevolutionary": 8340,
      "Ġvictory": 8341,
      "Ġdecreased": 8342,
      "Ġfeedback": 8343,
      "Ġenormous": 8344,
      ".).": 8345,
      "Hist": 8346,
      "Ġmes": 8347,
      "Ġmouse": 8348,
      "ĠPract": 8349,
      "ĠFar": 8350,
      "ĠFair": 8351,
      "ĠOlymp": 8352,
      "ecess": 8353,
      "ritten": 8354,
      "Ġcolour": 8355,
      "Ġaccord": 8356,
      "Ġsurre": 8357,
      "Ġpubl": 8358,
      "ega": 8359,
      "Ġboost": 8360,
      "ĠChristmas": 8361,
      "ependent": 8362,
      "Ġargued": 8363,
      "Ġattempted": 8364,
      "Ġvideos": 8365,
      "ĠModern": 8366,
      "Ġinspired": 8367,
      "Ġqualities": 8368,
      "Ġceremon": 8369,
      "ĠMalaysia": 8370,
      "91": 8371,
      "xml": 8372,
      "ãĢ": 8373,
      "Ġbat": 8374,
      "aning": 8375,
      "Ġmature": 8376,
      "Ġthym": 8377,
      "ila": 8378,
      "Ġrect": 8379,
      "igate": 8380,
      "ĠCapt": 8381,
      "Ġstations": 8382,
      "ĠLight": 8383,
      "akistan": 8384,
      "Ġdesired": 8385,
      "Ġregister": 8386,
      "ĠHeart": 8387,
      "Ġbuff": 8388,
      "Ġgrain": 8389,
      "Ġconfig": 8390,
      "2007": 8391,
      "ĠSyn": 8392,
      "Ġprotecting": 8393,
      "Ġfarming": 8394,
      "Ġestablishment": 8395,
      "ĠServer": 8396,
      "Ġtrends": 8397,
      "Ġchannel": 8398,
      "pdf": 8399,
      "ĠScotland": 8400,
      "nov": 8401,
      "sm": 8402,
      "Ġwelfare": 8403,
      "Ġfellow": 8404,
      "Ġnice": 8405,
      "ĠBiology": 8406,
      "ĠDC": 8407,
      "ĠFact": 8408,
      "ĠJava": 8409,
      "ĠOil": 8410,
      "Ġdisability": 8411,
      "Ġdisrupt": 8412,
      "Ġ1920": 8413,
      "eph": 8414,
      "phal": 8415,
      "Ġeveryday": 8416,
      "Ġconfident": 8417,
      "Ġrestore": 8418,
      "Ġcheap": 8419,
      "ĠPlant": 8420,
      "2004": 8421,
      "Ġprobability": 8422,
      "Ġarguments": 8423,
      "Ġmaintaining": 8424,
      "ĠPerhaps": 8425,
      "Ġvariables": 8426,
      "Ġreflected": 8427,
      "Ġgraduate": 8428,
      "Ġtranslation": 8429,
      "ĠSwed": 8430,
      "Ġboundaries": 8431,
      "Ġrecycling": 8432,
      "Ġdiscipline": 8433,
      "ĠFurthermore": 8434,
      "52": 8435,
      "96": 8436,
      "Sm": 8437,
      "law": 8438,
      "Ġty": 8439,
      "Ġtor": 8440,
      "inch": 8441,
      "Ġcas": 8442,
      "Ġwine": 8443,
      "Ġdoses": 8444,
      "otton": 8445,
      "cho": 8446,
      "ĠSus": 8447,
      "ĠCall": 8448,
      "Ġassemb": 8449,
      "ĠDom": 8450,
      "ĠNever": 8451,
      "Ġspons": 8452,
      "ĠOper": 8453,
      "Ġtea": 8454,
      "lesh": 8455,
      "Ġemission": 8456,
      "Ġrefused": 8457,
      "Ġdistinction": 8458,
      "mann": 8459,
      "aterials": 8460,
      "swana": 8461,
      "Ġcharacteristic": 8462,
      "Also": 8463,
      "Ġprivile": 8464,
      "Ġaffecting": 8465,
      "Ġjudges": 8466,
      "Ġuncertain": 8467,
      "Ġadopt": 8468,
      "Ġemotion": 8469,
      "Ġlifetime": 8470,
      "Ġcolonies": 8471,
      "Ġaimed": 8472,
      "ĠArea": 8473,
      "Ġoccupied": 8474,
      "Ġadapted": 8475,
      "Ġgirl": 8476,
      "Ġeliminate": 8477,
      "ĠJerusalem": 8478,
      "Ġpreferred": 8479,
      "Ġduty": 8480,
      "Ġdivorce": 8481,
      "800": 8482,
      "Col": 8483,
      "PV": 8484,
      "bul": 8485,
      "western": 8486,
      "ref": 8487,
      "Ġhosp": 8488,
      "omal": 8489,
      "Ġgrid": 8490,
      "utrition": 8491,
      "ĠSing": 8492,
      "ĠSaint": 8493,
      "Ġstood": 8494,
      "Ġconvey": 8495,
      "isting": 8496,
      "thritis": 8497,
      "illa": 8498,
      "ĠHa": 8499,
      "ĠHam": 8500,
      "Ġhel": 8501,
      "rive": 8502,
      "ĠDoes": 8503,
      "ĠKey": 8504,
      "Ġrecon": 8505,
      "Ġquiet": 8506,
      "ervous": 8507,
      "Ġblind": 8508,
      "Ġroles": 8509,
      "ĠYes": 8510,
      "Ġinvention": 8511,
      "Ġcoverage": 8512,
      "Ġcooperation": 8513,
      "Ġdetected": 8514,
      "Ġ1982": 8515,
      "Ġurine": 8516,
      "Ġcircuit": 8517,
      "Ġhydro": 8518,
      "Ġtribe": 8519,
      "Ġwearing": 8520,
      "uzz": 8521,
      "Ġpilot": 8522,
      "Ġtrigger": 8523,
      "ĠMPa": 8524,
      "ĠSunday": 8525,
      "Ġentitled": 8526,
      "CH": 8527,
      "Def": 8528,
      "Lear": 8529,
      "She": 8530,
      "Under": 8531,
      "after": 8532,
      "da": 8533,
      "gon": 8534,
      "gments": 8535,
      "uy": 8536,
      "Ġ)": 8537,
      "Ġ;": 8538,
      "Ġsons": 8539,
      "Ġsitting": 8540,
      "Ġcort": 8541,
      "Ġmir": 8542,
      "Ġstuff": 8543,
      "ulus": 8544,
      "aints": 8545,
      "ĠFind": 8546,
      "una": 8547,
      "Ġshoot": 8548,
      "pled": 8549,
      "Ġ33": 8550,
      "....": 8551,
      "Ġhandling": 8552,
      "Ġplayers": 8553,
      "2001": 8554,
      "aneously": 8555,
      "Ġemerging": 8556,
      "Ġmeasurement": 8557,
      "Ġembra": 8558,
      "Ġsteam": 8559,
      "Ġmolecule": 8560,
      "Ġsequences": 8561,
      "Ġvotes": 8562,
      "ĠArchives": 8563,
      "Ġbreath": 8564,
      "Ġventric": 8565,
      "Ġcorresponding": 8566,
      "Ġmathematical": 8567,
      "ĠBuddh": 8568,
      "Ġsucceeded": 8569,
      "ovenant": 8570,
      "Ġswimming": 8571,
      "Ġcoffee": 8572,
      ".âĢĻ": 8573,
      "Sec": 8574,
      "brid": 8575,
      "gic": 8576,
      "Ġtables": 8577,
      "Ġom": 8578,
      "Ġwars": 8579,
      "Ġnom": 8580,
      "ĠIU": 8581,
      "Ġprosp": 8582,
      "Ġalive": 8583,
      "ĠDO": 8584,
      "ĠDrug": 8585,
      "ocated": 8586,
      "Ġsperm": 8587,
      "Ġspray": 8588,
      "duate": 8589,
      "Ġarise": 8590,
      "Ġunp": 8591,
      "Ġregulation": 8592,
      "Ġentering": 8593,
      "ohyd": 8594,
      "2010": 8595,
      "Ġprogramming": 8596,
      "Ġoldest": 8597,
      "Ġ1989": 8598,
      "Ġmovie": 8599,
      "ĠAbraham": 8600,
      "ursday": 8601,
      "Ġsettings": 8602,
      "ceedings": 8603,
      "olester": 8604,
      "Ġstruck": 8605,
      "Ġelectrons": 8606,
      "isphere": 8607,
      "Ġneighborhood": 8608,
      "Ġdiameter": 8609,
      "62": 8610,
      "93": 8611,
      "CP": 8612,
      "ML": 8613,
      "grams": 8614,
      "orig": 8615,
      "orith": 8616,
      "Ġmour": 8617,
      "Ġmixture": 8618,
      "Ġrevenue": 8619,
      "Ġstrain": 8620,
      "Ġ1000": 8621,
      "Ġshore": 8622,
      "Ġabd": 8623,
      "Ġworry": 8624,
      "ĠOS": 8625,
      "outheast": 8626,
      "Ġcompens": 8627,
      "Ġmanual": 8628,
      "Ġunions": 8629,
      "issance": 8630,
      "awa": 8631,
      "Ġconfidence": 8632,
      "Ġprofit": 8633,
      "ployed": 8634,
      "untary": 8635,
      "Ġviolent": 8636,
      "ĠAppro": 8637,
      "Ġcolonial": 8638,
      "Ġquantum": 8639,
      "Ġarrested": 8640,
      "Ġmortality": 8641,
      "thodox": 8642,
      "Rep": 8643,
      "ois": 8644,
      "ati": 8645,
      "Ġsoph": 8646,
      "Ġsales": 8647,
      "Ġfur": 8648,
      "Ġfix": 8649,
      "Ġfought": 8650,
      "Ġfrog": 8651,
      "Ġlob": 8652,
      "urches": 8653,
      "ĠSon": 8654,
      "ĠMur": 8655,
      "ods": 8656,
      "rien": 8657,
      "ĠDutch": 8658,
      "ĠNic": 8659,
      "Ġplas": 8660,
      "Ġadvent": 8661,
      "Ġreserv": 8662,
      "ologically": 8663,
      "Ġgenome": 8664,
      "Ġindirect": 8665,
      "atively": 8666,
      "Ġacute": 8667,
      "ĠProb": 8668,
      "ĠAlaska": 8669,
      "upiter": 8670,
      "stitutes": 8671,
      "Ġoperated": 8672,
      "Ġpursu": 8673,
      "Ġteams": 8674,
      "Ġgeomet": 8675,
      "Ġtranslated": 8676,
      "ĠModel": 8677,
      "Ġhousing": 8678,
      "Ġgods": 8679,
      "Ġconversation": 8680,
      "Ġbrothers": 8681,
      "Ġthermal": 8682,
      "Ġingredients": 8683,
      "Ġveloc": 8684,
      "Jan": 8685,
      "green": 8686,
      "vation": 8687,
      "Ġ~": 8688,
      "erry": 8689,
      "ala": 8690,
      "Ġerect": 8691,
      "Ġnervous": 8692,
      "ĠCub": 8693,
      "ĠIce": 8694,
      "ĠMult": 8695,
      "ĠEU": 8696,
      "ĠFred": 8697,
      "ourse": 8698,
      "Ġincident": 8699,
      "Ġclouds": 8700,
      "Ġmeals": 8701,
      "Ġsovere": 8702,
      "Ġinfants": 8703,
      "text": 8704,
      "Ġacting": 8705,
      "Ġdevelopments": 8706,
      "Ġattended": 8707,
      "Ġpatch": 8708,
      "Ġcommunic": 8709,
      "Ġparticle": 8710,
      "ĠAdam": 8711,
      "Ġpressures": 8712,
      "ĠZeal": 8713,
      "Ġmusical": 8714,
      "riday": 8715,
      "Ġfunctioning": 8716,
      "ĠMarine": 8717,
      "Ġargues": 8718,
      "ltry": 8719,
      "Ġcitizen": 8720,
      "Ġmutations": 8721,
      "III": 8722,
      "Ġwait": 8723,
      "ENT": 8724,
      "Ġstreams": 8725,
      "Ġmerch": 8726,
      "Ġopinions": 8727,
      "Ġkilometers": 8728,
      "ĠNavy": 8729,
      "Ġcandidate": 8730,
      "ineteenth": 8731,
      "Ġmetabol": 8732,
      "namese": 8733,
      "iw": 8734,
      "lah": 8735,
      "whel": 8736,
      "Ġsad": 8737,
      "Ġcensus": 8738,
      "Ġpace": 8739,
      "Ġbridge": 8740,
      "Ġfires": 8741,
      "Ġmold": 8742,
      "icious": 8743,
      "Ġdress": 8744,
      "Ġgathered": 8745,
      "Ġitem": 8746,
      "abapt": 8747,
      "ĠWed": 8748,
      "Ġabstract": 8749,
      "Ġmanager": 8750,
      "Ġprey": 8751,
      "Ġrecording": 8752,
      "Ġwouldn": 8753,
      "lected": 8754,
      "ints": 8755,
      "Ġsocieties": 8756,
      "Ġcontinuing": 8757,
      "coming": 8758,
      "ĠDev": 8759,
      "Ġguess": 8760,
      "Ġparliament": 8761,
      "Ġdevoted": 8762,
      "Ġavailability": 8763,
      "Ġposted": 8764,
      "Ġannually": 8765,
      "Ġimprovements": 8766,
      "Ġdietary": 8767,
      "Ġcontributions": 8768,
      "Ġphysicians": 8769,
      "haust": 8770,
      "ĠReference": 8771,
      "Ġlicense": 8772,
      "Ġinvolvement": 8773,
      "Researchers": 8774,
      "olesterol": 8775,
      "Back": 8776,
      "lights": 8777,
      "Ĥ¬": 8778,
      "Ġcroc": 8779,
      "also": 8780,
      "Ġtox": 8781,
      "Ġreaches": 8782,
      "ometer": 8783,
      "uting": 8784,
      "ĠSqu": 8785,
      "igious": 8786,
      "ĠMajor": 8787,
      "ĠPot": 8788,
      "ĠPass": 8789,
      "antly": 8790,
      "Ġchap": 8791,
      "Ġwheel": 8792,
      "Ġadverse": 8793,
      "onsin": 8794,
      "Ġcounties": 8795,
      "Ġserves": 8796,
      "2011": 8797,
      "Ġphysically": 8798,
      "Ġbasically": 8799,
      "Ġfaces": 8800,
      "Ġobserve": 8801,
      "Ġfilter": 8802,
      "Ġminds": 8803,
      "Ġlabour": 8804,
      "ĠAgain": 8805,
      "Ġinvestigate": 8806,
      "Ġconstitutional": 8807,
      "Ġregistered": 8808,
      "Rel": 8809,
      "bach": 8810,
      "kind": 8811,
      "po": 8812,
      "was": 8813,
      "Ã¦": 8814,
      "Ġtorn": 8815,
      "Ġcrown": 8816,
      "omers": 8817,
      "ĠTV": 8818,
      "ĠTable": 8819,
      "section": 8820,
      "imony": 8821,
      "ĠMax": 8822,
      "Ġalph": 8823,
      "rium": 8824,
      "emet": 8825,
      "ĠNote": 8826,
      "Ġprovisions": 8827,
      "uclear": 8828,
      "Ġempt": 8829,
      "Ġ46": 8830,
      "Ġmoderate": 8831,
      "ĠIndeed": 8832,
      "Ġmetast": 8833,
      "Ġdetermining": 8834,
      "isconsin": 8835,
      "ĠMaria": 8836,
      "Ġwindows": 8837,
      "Ġversus": 8838,
      "Ġsurvived": 8839,
      "zech": 8840,
      "Ġsuscept": 8841,
      "Ġchallenging": 8842,
      "Ġexcessive": 8843,
      "Ġallergies": 8844,
      "Ġpreparation": 8845,
      "Ġsubsid": 8846,
      "ĠIndonesia": 8847,
      "Ġmelanoma": 8848,
      "400": 8849,
      "51": 8850,
      "97": 8851,
      "Copyright": 8852,
      "Get": 8853,
      "ko": 8854,
      "vi": 8855,
      "Ġsale": 8856,
      "Ġcraft": 8857,
      "itches": 8858,
      "alin": 8859,
      "Ġfest": 8860,
      "Ġbears": 8861,
      "ĠTake": 8862,
      "sem": 8863,
      "ĠCro": 8864,
      "ĠCorn": 8865,
      "Ġprol": 8866,
      "ĠHom": 8867,
      "ĠDak": 8868,
      "ĠRay": 8869,
      "ĠLy": 8870,
      "ĠJo": 8871,
      "pert": 8872,
      "agen": 8873,
      "ĠChief": 8874,
      "rene": 8875,
      "Ġprime": 8876,
      "ĠNewton": 8877,
      "Ġenthus": 8878,
      "Ġ800": 8879,
      "Ġmetres": 8880,
      "Ġobjective": 8881,
      "Ġobser": 8882,
      "Ġdrives": 8883,
      "ĠScript": 8884,
      "Ġregardless": 8885,
      "ĠChristianity": 8886,
      "Ġbroadcast": 8887,
      "Ġstrengthen": 8888,
      "Ġassumed": 8889,
      "ĠBaghdad": 8890,
      "Ġoccasionally": 8891,
      "Ġtheoretical": 8892,
      "feeding": 8893,
      "Ġconclusions": 8894,
      "2000": 8895,
      "Co": 8896,
      "FC": 8897,
      "eut": 8898,
      "Ġsul": 8899,
      "Ġcm": 8900,
      "essee": 8901,
      "Ġpel": 8902,
      "Ġfuels": 8903,
      "Ġmunicipal": 8904,
      "Ġdict": 8905,
      "entieth": 8906,
      "Ġreward": 8907,
      "sex": 8908,
      "Ġ130": 8909,
      "ĠPakistan": 8910,
      "Ġdeer": 8911,
      "Ġvice": 8912,
      "ĠFront": 8913,
      "ĠNO": 8914,
      "Ġintent": 8915,
      "Ġincent": 8916,
      "Ġremed": 8917,
      "Ġelectro": 8918,
      "Ġ1983": 8919,
      "Ġkeeps": 8920,
      "regular": 8921,
      "Ġutility": 8922,
      "Ġjudgment": 8923,
      "Ġconsisting": 8924,
      "Ġmicrob": 8925,
      "Ġacquired": 8926,
      "ĠSpecies": 8927,
      "itzer": 8928,
      "Art": 8929,
      "Ġsyntax": 8930,
      "Ġpartnership": 8931,
      "ĠQuebec": 8932,
      "Ġhouseholds": 8933,
      "Ġmanufacturers": 8934,
      "ĠIrish": 8935,
      "Ġantibiotics": 8936,
      "ĠVitamin": 8937,
      "emetery": 8938,
      "300": 8939,
      "54": 8940,
      "61": 8941,
      "Despite": 8942,
      "HS": 8943,
      "MM": 8944,
      "March": 8945,
      "rin": 8946,
      "Ġtip": 8947,
      "Ġpush": 8948,
      "Ġbare": 8949,
      "Ġfabric": 8950,
      "Ġmile": 8951,
      "lete": 8952,
      "rose": 8953,
      "Ġlosing": 8954,
      "ĠTreatment": 8955,
      "Ġgam": 8956,
      "ura": 8957,
      "rared": 8958,
      "Ġstew": 8959,
      "ĠMA": 8960,
      "ifice": 8961,
      "Ġven": 8962,
      "Ġsees": 8963,
      "Ġsevent": 8964,
      "ĠLater": 8965,
      "Ġshapes": 8966,
      "ipher": 8967,
      "Ġclar": 8968,
      "Ġimpair": 8969,
      "Ġformula": 8970,
      "Ġhumming": 8971,
      "Ġendangered": 8972,
      "Ġaffairs": 8973,
      "ĠColon": 8974,
      "Ġlights": 8975,
      "Ġcirculation": 8976,
      "Ġdiagram": 8977,
      "Ġdipl": 8978,
      "Ġpermitted": 8979,
      "Ġtransmitted": 8980,
      "Ġestablishing": 8981,
      "Ġliberal": 8982,
      "Ġweakness": 8983,
      "ĠCommonwealth": 8984,
      "Ġnewspapers": 8985,
      "Ġsongs": 8986,
      "Ġnucleus": 8987,
      "Ġhazardous": 8988,
      "ĠZealand": 8989,
      "LA": 8990,
      "bell": 8991,
      "gust": 8992,
      "zo": 8993,
      "Ã¢": 8994,
      "Ġfiber": 8995,
      "icut": 8996,
      "Ġhall": 8997,
      "ĠTre": 8998,
      "iders": 8999,
      "igible": 9000,
      "iry": 9001,
      "amine": 9002,
      "Ġprocl": 9003,
      "ĠMoon": 9004,
      "Ġdece": 9005,
      "Ġnoticed": 9006,
      "Ġplot": 9007,
      "duction": 9008,
      "iph": 9009,
      "Ġdoct": 9010,
      "Ġarsenic": 9011,
      "ieve": 9012,
      "teenth": 9013,
      "Ġoverwhel": 9014,
      "ĠUnfortunately": 9015,
      "aware": 9016,
      "Ġending": 9017,
      "Ġengines": 9018,
      "ĠClinical": 9019,
      "Ġ1987": 9020,
      "2005": 9021,
      "Ġsentences": 9022,
      "specific": 9023,
      "Ġjuvenile": 9024,
      "Ġprayer": 9025,
      "Ġflexible": 9026,
      "ĠAffairs": 9027,
      "Ġdischarge": 9028,
      "53": 9029,
      "cs": 9030,
      "eath": 9031,
      "mic": 9032,
      "vals": 9033,
      "Ġcul": 9034,
      "Ġwat": 9035,
      "orrect": 9036,
      "Ġpor": 9037,
      "Ġdies": 9038,
      "Ġhunt": 9039,
      "ĠSix": 9040,
      "Ġanemia": 9041,
      "ĠWin": 9042,
      "ĠWal": 9043,
      "ĠWright": 9044,
      "Ġspat": 9045,
      "Ġabol": 9046,
      "Ġallergy": 9047,
      "vels": 9048,
      "Ġoffices": 9049,
      "neum": 9050,
      "Ġgrains": 9051,
      "Ġpersonnel": 9052,
      "Ġ978": 9053,
      "Ġreduces": 9054,
      "azon": 9055,
      "Ġbeneath": 9056,
      "Ġ1975": 9057,
      "apped": 9058,
      "ĠAssess": 9059,
      "Ġsensitivity": 9060,
      "Ġcopper": 9061,
      "Ġcontainers": 9062,
      "Ġburied": 9063,
      "ilosop": 9064,
      "ĠCheck": 9065,
      "ĠLawrence": 9066,
      "arios": 9067,
      "Ġarrival": 9068,
      "ĠVietnamese": 9069,
      "Ġdistinguish": 9070,
      "Ġallergic": 9071,
      "ĠDougl": 9072,
      "admium": 9073,
      "Ġaccompanied": 9074,
      "UT": 9075,
      "bles": 9076,
      "ga": 9077,
      "pret": 9078,
      "Ġthy": 9079,
      "Ġthyroid": 9080,
      "omatic": 9081,
      "olis": 9082,
      "ĠCode": 9083,
      "âĢĺ": 9084,
      "Ġ(âĢľ": 9085,
      "ĠPerson": 9086,
      "through": 9087,
      "Ġvig": 9088,
      "Ġarbit": 9089,
      "aved": 9090,
      "lude": 9091,
      "Ġactively": 9092,
      "Ġrespiratory": 9093,
      "they": 9094,
      "Ġexploration": 9095,
      "Ġ95": 9096,
      "Ġtemple": 9097,
      "Ġlegit": 9098,
      "Ġbreed": 9099,
      "Ġdescribing": 9100,
      "Ġharder": 9101,
      "Ġvolunteers": 9102,
      "Ġfocuses": 9103,
      "mediate": 9104,
      "inois": 9105,
      "books": 9106,
      "irable": 9107,
      "Ġoxid": 9108,
      "Ġadmitted": 9109,
      "Ġconvert": 9110,
      "Ġreplacement": 9111,
      "Ġhopes": 9112,
      "Ġdialogue": 9113,
      "Ġoblig": 9114,
      "ĠSafety": 9115,
      "Ġsuddenly": 9116,
      "Ġholiday": 9117,
      "Ġaggressive": 9118,
      "!âĢĿ": 9119,
      "Tra": 9120,
      "eh": 9121,
      "oard": 9122,
      "erally": 9123,
      "atal": 9124,
      "isons": 9125,
      "Ġinact": 9126,
      "Ġmood": 9127,
      "Ġtom": 9128,
      "role": 9129,
      "Ġreverse": 9130,
      "Ġlip": 9131,
      "ĠSleep": 9132,
      "ĠCT": 9133,
      "ador": 9134,
      "ĠBru": 9135,
      "umer": 9136,
      "ĠWorks": 9137,
      "ĠWisconsin": 9138,
      "anted": 9139,
      "oga": 9140,
      "ĠJul": 9141,
      "ieval": 9142,
      "Ġtraum": 9143,
      "adequ": 9144,
      "icked": 9145,
      "Ġinsight": 9146,
      "risk": 9147,
      "Ġanticip": 9148,
      "Ġvolt": 9149,
      "Ġcampus": 9150,
      "Ġengineer": 9151,
      "Ġdivine": 9152,
      "Ġcement": 9153,
      "Ġirrit": 9154,
      "Ġ1940": 9155,
      "Ġcontainer": 9156,
      "Ġwaiting": 9157,
      "Ġcelebrate": 9158,
      "Ġadvantages": 9159,
      "Ġassistant": 9160,
      "Ġfifty": 9161,
      "Ġdistinguished": 9162,
      "ĠScientists": 9163,
      "ĠBotswana": 9164,
      "Ġgalaxy": 9165,
      "Ġprairie": 9166,
      "Ġalgorith": 9167,
      "ĠConnecticut": 9168,
      ".),": 9169,
      "Fig": 9170,
      "Ge": 9171,
      "Source": 9172,
      "even": 9173,
      "fl": 9174,
      "page": 9175,
      "uan": 9176,
      "Ġtanks": 9177,
      "hent": 9178,
      "Ġgram": 9179,
      "igm": 9180,
      "eld": 9181,
      "elly": 9182,
      "Ġprox": 9183,
      "opathy": 9184,
      "ĠEll": 9185,
      "Ġshaped": 9186,
      "ĠJones": 9187,
      "Ġkin": 9188,
      "aret": 9189,
      "enda": 9190,
      "Ġpartly": 9191,
      "angle": 9192,
      "Ġtraits": 9193,
      "Ġgenetics": 9194,
      "Ġpool": 9195,
      "Ġ43": 9196,
      "Ġclassic": 9197,
      "Ġorigins": 9198,
      "Ġposts": 9199,
      "Ġreturns": 9200,
      "ĠDavis": 9201,
      "Ġpermit": 9202,
      "Ġvariations": 9203,
      "Ġdenied": 9204,
      "Ġexhibit": 9205,
      "Ġexhibition": 9206,
      "ĠMicrosoft": 9207,
      "ĠTennessee": 9208,
      "87": 9209,
      "PD": 9210,
      "Where": 9211,
      "ba": 9212,
      "zes": 9213,
      "Ġoceans": 9214,
[...]
